/**
  ******************************************************************************
  * @file    network_data_params.c
  * @author  AST Embedded Analytics Research Platform
  * @date    2024-10-22T14:34:22+0200
  * @brief   AI Tool Automatic Code Generator for Embedded NN computing
  ******************************************************************************
  * Copyright (c) 2024 STMicroelectronics.
  * All rights reserved.
  *
  * This software is licensed under terms that can be found in the LICENSE file
  * in the root directory of this software component.
  * If no LICENSE file comes with this software, it is provided AS-IS.
  ******************************************************************************
  */

#include "network_data_params.h"


/**  Activations Section  ****************************************************/
ai_handle g_network_activations_table[1 + 2] = {
  AI_HANDLE_PTR(AI_MAGIC_MARKER),
  AI_HANDLE_PTR(NULL),
  AI_HANDLE_PTR(AI_MAGIC_MARKER),
};




/**  Weights Section  ********************************************************/
AI_ALIGNED(32)
const ai_u64 s_network_weights_array_u64[9700] = {
  0x4043fbe0405d0aefU, 0xbfb1e85dc0969b91U, 0x402cffd7407d8aecU, 0xc00a80d3bf258651U,
  0x4056cce3c05dfe30U, 0x40efcba9c1082dd2U, 0x40911e2c4000b81bU, 0xbe928117c0a2e248U,
  0xbf34c55640a80901U, 0x3ed9719a40370ffeU, 0xc0ecabd3c02ce5a5U, 0xbfcec7a0c0c6d78bU,
  0x3f81822b4080c7d8U, 0xbf19c59540c5c543U, 0x3fde4d45c06f0055U, 0x3f867c76be2ed05cU,
  0x3f26e8e6bf987a59U, 0xbf6ab9d7c00fb961U, 0xbf5a00653f9655e4U, 0xbf680980beee0424U,
  0x3e6911ef3f1c264aU, 0xbf950457be9f23d8U, 0xbf00352a3dbfa8f7U, 0x3e9bc606bf8ccbf8U,
  0xbf459c8ebd610edbU, 0xbd29f7a23e3a1407U, 0xbe5dba15bf166a2bU, 0x3f1db3f1bd2e7c7dU,
  0xbed994e5bf76864dU, 0x3e7d0fdabf34b54aU, 0x3efe43f4be528976U, 0x3f4ce519bf09cce2U,
  0x3f8684213e9b9cd5U, 0x3eb839f83ec15cc5U, 0xbf4d9b8ebeaf4c5cU, 0xbf26fe6c3e5c0595U,
  0x3ebbae8fbe4cb657U, 0xbec2f8683e3cac56U, 0xbd99f5953dd9cedbU, 0x3f3613873f22bfffU,
  0x3edc7d95be92dc5aU, 0xbe740461bdff3f25U, 0x3f25b664bfa81403U, 0x3f2820dfbf163895U,
  0xbf6260ae3e905c36U, 0xbe9276ce402113b1U, 0x3f5d93a43e6651f7U, 0x3f607781beffbd80U,
  0xbea58925bf604113U, 0x3dd5f4f83e351cebU, 0x3f4373d53ef26f99U, 0xbe8c4522bee953faU,
  0xbea71fad3ede57f9U, 0xbf11a8f93f62c640U, 0x3f35876f3f645dfaU, 0xbf00f5e53f3acf99U,
  0x3f6c40eabeedc456U, 0x3f0b9e8bbefc3f87U, 0xbdb826a93f4a0e59U, 0xbfae1187bea8cd72U,
  0x3e85c3df3eb8fcaeU, 0xbf7378723f7798b8U, 0xbed36fb93fc6862cU, 0xbde25311bf342bb8U,
  0x3ba3f446bf47b714U, 0xbec0c93fbfaae56aU, 0xbf1db1a23f59bca6U, 0x3ee039e83f05e1eeU,
  0xbf538b0f3f56191cU, 0xbe99929abf81758aU, 0xbef868373ea12777U, 0x3f2250b3bea28104U,
  0xbf69ef63bd233c20U, 0xbf1dda47bf65966dU, 0x3efd0da2bf747556U, 0x3e50a29d3f389972U,
  0xbf4906f43ed7350cU, 0x3eed10aa3f421f9dU, 0x3d86b1debf809705U, 0x3ed162aebe2edf97U,
  0xbf0db490bebeda81U, 0xbea1604dbf1776aeU, 0xbf02542bbf48260eU, 0xbdf80aa8bf344921U,
  0x3fa1780fbe0b96f5U, 0x3f6311acbf618926U, 0x3f8a9a0bbeb6eea9U, 0xbed4bd83be8107baU,
  0xbef600dabf32aaa4U, 0xbeae52a4bf6245d7U, 0x3cdfc871bf590c34U, 0x3f417e0b3f5cac92U,
  0x3eb8b53fbf83e2b3U, 0xbe865e4a3ef7a67bU, 0xbf3200cfbed5d534U, 0x3dbbb0c43f17ed53U,
  0xbe91ff56bf1c6b4dU, 0xbf4d57e73f979842U, 0xbf56d2e93eb1ef71U, 0xbf9cc1be3ebf7df0U,
  0xbf6032e7bf0180bfU, 0x3f36197d3f479c5eU, 0x3f0ad484beb8a8a9U, 0x3e91ac54bf2edd30U,
  0x3ef207c9bfa7265eU, 0xbe7bcb00bfd263dfU, 0x3f9ae130bf82144aU, 0xbd97be79bf43a3f9U,
  0x3ff15b73bfe69797U, 0xbf4f694abd8bb26aU, 0x3f489aa6bf83cf18U, 0x3ec33436be57192fU,
  0xbf37d5ccbed0a6a0U, 0xbf77f451bf80fa2cU, 0xbf16f8c8bea3126dU, 0xbe562f4dbeaaf60cU,
  0x3f6968dcbe5d95ebU, 0xbd532ecd3f118532U, 0xbd93981cbee7c998U, 0x3e94f2dcbfa7c57eU,
  0xbf2014543cc24a74U, 0x3d774f48bee12c7dU, 0xbe8090053f9d948aU, 0x3dfd07973e8e348eU,
  0x3ecaf1edbf46aa43U, 0x3ed94e2a3d770b23U, 0xbf57a7cd3ed21b30U, 0x3e79b6473f2dfb8dU,
  0xbe1add4fbea56bc5U, 0x3e6c25623e0219dbU, 0x3df3c7e5be47225bU, 0xbebacce03dedd81dU,
  0x3f2dbf5a3f0fac6cU, 0x3f0333babd14b6e2U, 0x3bd5c0eebf293071U, 0x3f0077f13d0af8bfU,
  0xbf4c550d3edcf4eeU, 0x3da133f83ece5d74U, 0x3ff466693f31c708U, 0xbeaff2f53f884b47U,
  0xbf48ada0bf62286bU, 0x3f20a2c7bf0d7017U, 0xbeaeb1113f221192U, 0x3f10fe0b3f4ae069U,
  0xbe1a78a8bf52d85bU, 0x3f944a563f9100d3U, 0xbf6de8f2be8cf760U, 0x3eff11c5be9021f5U,
  0xbc14dc0cbe99c417U, 0x3fd727b63f93c6baU, 0x3ed8b03c3e0aa0a8U, 0x3f013ff13ef591a3U,
  0x3da7d75b3edb1553U, 0xbf1b9f94be56718dU, 0x3f2ac424bc54dc5bU, 0x3eb553c33e7fbf2cU,
  0x3f96261dbd59c819U, 0x3f06ec83bf3ff79dU, 0xbe0326d83b69210eU, 0x3f0ec4693f171616U,
  0x3b3bcfe43dcc1418U, 0xbe3fb8e5be06a20fU, 0x3dc9cd163ed60490U, 0x3ea21dd7be64bf4cU,
  0xbd8823333f1d7533U, 0x3e85673c3f12c5e9U, 0x3f704fd6be90dc32U, 0xbeba43c0bdd6eeb5U,
  0x3eba237e3e5e6d8bU, 0x3e7042dfbf21bf5aU, 0xbedcda783f06bbafU, 0x3f0478c23c05c479U,
  0x3f374f07be03d8b9U, 0xbe57fef43ec0aca8U, 0x3f5e563ebea8162dU, 0x3e26bb64bdf7901fU,
  0x3f6469e33f3bd1d2U, 0xbd261e18becdc4e9U, 0x3f8418743d05eb79U, 0x3d0e2e2f3f29fa52U,
  0x3f2a08313e976344U, 0x3ecfcce93d1d87a9U, 0xbedde1c2be0dd239U, 0x3f03e6d23e282915U,
  0x3f35b5693f01861cU, 0x3e35cb56beb97390U, 0xbab5a84cbda1b4ebU, 0x3db878a93f334f44U,
  0xbec22b353e8b9272U, 0x3ed9c795bf6296d2U, 0xbc785e82bf024268U, 0x3e1abddbbf1e6746U,
  0x3d8566253e1844f7U, 0xbdc654573e58c661U, 0xbd4b570ebf2be11fU, 0x3e46d26fbf0fcc8aU,
  0x3e4d8959bde6b671U, 0xbef3378bbf1169c3U, 0x3ec8edfabdfc5985U, 0xbecf7ef43e4f005dU,
  0xbf234a983e98a6b0U, 0xbea6c5a73f00cdfaU, 0x3f1771d8bf48066eU, 0x3ef41e883ecd9721U,
  0x3f9f6e19bfc21063U, 0x3f1fc1bc3e039e63U, 0xbf1f6937bf012196U, 0x3e8413f5befee472U,
  0xbf8d0ffe3e8240d5U, 0x3f4d1e8a3e928614U, 0xbfd7ac3abe82b449U, 0x3edf7db1bf2a844dU,
  0x3f37445cbea5f3adU, 0x3ed523a43ed44f4cU, 0xbf3f84723f6d5926U, 0xbf2e030ac003eac7U,
  0x3ee71d82bf61cea0U, 0x3ecedf1f3e39d96fU, 0x3eb110bd3f286d7bU, 0xbe86a1713e5b1257U,
  0xbe5570123e949cd5U, 0xbf2e9fc63da6a150U, 0xbee062453e83effaU, 0x3e56558cbdcd0bbcU,
  0x3e98aafe3ec68c81U, 0x3df751463d2e0659U, 0x3e5a6df43e4b28f3U, 0xbe88b08b3e92c225U,
  0xbe6918113f213bf7U, 0x3d6d1cc23ee020d2U, 0x3eeb67383c44ca31U, 0x39ac55003fa0d214U,
  0x3df07628be3cc46dU, 0x3f591f353eae1583U, 0x3f8108393ebf3a1eU, 0xbfa4ab93bee6ff9cU,
  0xbf967ef5bf1d216fU, 0x3dcb9b6abf86d3aeU, 0xbf4e64e63f375407U, 0x3dca75f7be415487U,
  0x3dad53e13dc89a9aU, 0x3e1b9bdf3d95f3bdU, 0x3d2a5d043dcfc2a9U, 0xbe52ef76bc96b237U,
  0xbd151693bd507444U, 0x3d9ccc44bd48254cU, 0xbd823d603dc84739U, 0x3d92e4163e944823U,
  0x3dba14cbbd891ebeU, 0x3e4ae43f3e4f09daU, 0xbda4d9a13d92f1f9U, 0xbc3313273e82e8e1U,
  0xbe0680973e44f595U, 0x3bd9e3e0bd2264d8U, 0x3dd14d00bcfc03a7U, 0x3df7ec3a3e4023c2U,
  0x3e81b1eabe0abec4U, 0x3d4581c1bd6999e7U, 0xbe0ca2093e575fc5U, 0x3dd41588bd48f3fcU,
  0x3be272a53e56774fU, 0x3ddd2b8abd8f3966U, 0xbb38109a3e106a53U, 0x3e0e32113d511ee3U,
  0x3e893d70be675771U, 0x3ddb6331be4cf089U, 0x3e44b0393e1ab499U, 0x3e9aef98be1b4935U,
  0xbd88a8d4be02b37cU, 0x3e35ec133d705b83U, 0x3d8574fb3e22418aU, 0x3db0d4063df58107U,
  0xbd8d5db53ba40189U, 0x3e8f3298bd4fdb13U, 0x3d0bb1a7be1c963eU, 0xbd0697613e03376cU,
  0x3d39f690bc632a1eU, 0x3e1fbd06bcfa1db4U, 0x3e6fb041be0e36d1U, 0xbdb3b3033cc1ac70U,
  0x3ec7e8c83d13513aU, 0x3e490353bb85a686U, 0xbd5ea5ed3e0a1c67U, 0x3e12fd13bdf6e1fcU,
  0xbd9ad1f73e0e3a9bU, 0x3da4e2b53dcacfceU, 0xbe264094bdb53302U, 0xbe286bd8bde51e23U,
  0xbdd40c3cbdf13803U, 0x3d9f1791bcae6b18U, 0xbc3fee13bc7be59cU, 0x3d44883abdf077c2U,
  0x3da421c63e9f851fU, 0x3e127cc63c2549f5U, 0xbb322e62be284676U, 0x3e69326dbe0e89d7U,
  0x3ddadfb93e159a1cU, 0x3e1fc2203daf05eaU, 0x3e048ea53cef48c1U, 0x3d4c2c5a3daee154U,
  0x3cea37993e380fd9U, 0xbcfecf193e002920U, 0xbdd339c7bdf4796bU, 0x3e4e737f3e2ea5e2U,
  0x3d237d773e40f46aU, 0x3ded93bbbd93e5ebU, 0xbe081f403e55aa1eU, 0x3e9febb9bd50ab05U,
  0xbd2dbd2f3dd96c54U, 0x3e200f38be115b81U, 0xbd8c6eabbcd1a71fU, 0x3e3bf8eebde36708U,
  0xbd25d7323dfe48f5U, 0x3e3259acbb618939U, 0x3db87662be6c2992U, 0xbe8e284ebe4c943fU,
  0xbd803ec53def0caeU, 0x3e220785be6e1ac7U, 0xbe853656bdd4c9b9U, 0xbeaefa6bbde97f70U,
  0x3ccaf907be54ad24U, 0x3dc798c93e9ab0eeU, 0x3e9cf1793c99719dU, 0x3caf8c57bd863e7bU,
  0x3dc4747b3eadbd8fU, 0xbe05dea6bcb100adU, 0xbc9ddd9cbe0731feU, 0x3c2e4b0f3dbb1794U,
  0xbe668df83e91c318U, 0x3e9310693f099da2U, 0x3ca61d453e820a9fU, 0x3e9a6ec53ead34a9U,
  0x3c8befcbbe2c1033U, 0xbd3c1bb53e2001cbU, 0x3cc8a328b8850823U, 0xbdba293bbe028cf3U,
  0xbe3696893c801049U, 0x3d8aea483d77a6efU, 0xbcef97b93de0e3f7U, 0xbe6eb447bdc2bf57U,
  0xbd9a8cfa3dd9f4dbU, 0x3e39bd01be5495eaU, 0x3d4902473e1ed5b7U, 0xbe164705bed3fb6dU,
  0x3e10a421be98fcf3U, 0xbe8305cb3ebbd920U, 0xbde7c4c13ea2c1c4U, 0x3d9a65b53e429029U,
  0xbe5055643e0708b6U, 0x3e4cd18f3bc6ce8bU, 0x3c96204fbd2b4ad3U, 0xbe3b2e7ebe21516aU,
  0x3db40d493e4cb09cU, 0xbe42b74e3c6afd50U, 0x3e8ce9e9be60a594U, 0xbd3ddcafbe63f24eU,
  0x3d46d0a23d6dbbd3U, 0xbe6e0216bd5f57aeU, 0xbdad27983d228b1dU, 0x3e26a405bce2b009U,
  0xbe0b6d51be6f7c45U, 0xbe676566be88ed72U, 0xbe0267b23d80309cU, 0xbea32c8abd94fb50U,
  0x3e128797bd6c9f47U, 0xbe0061063e0edd59U, 0x3ae05a7a3e0ce6d6U, 0xbe431954be179d5aU,
  0x3e329663bc3e5993U, 0xbd5606553e163776U, 0xbb487c073e29263fU, 0x3e1e81413e133473U,
  0x3dc40477be171fddU, 0xbe3853a03e58b4e7U, 0xbdee4ec8be298645U, 0xbe2eebb63e9ca196U,
  0x3c80a13c3e65dcf3U, 0x3e6e29e83ec37bf0U, 0xbcfd1ea83e6544f8U, 0xbcece5943e17c14fU,
  0x3cad9b99be99f4ecU, 0xbe0819143e4514bdU, 0x3d54414a3d6b96afU, 0x3c86d0a83d26f3a4U,
  0xbdc93ec63e0b864fU, 0x3d72ee383e825ce9U, 0x3e023e66bcd4da06U, 0x3e205b2fbe520815U,
  0x3e840d933eb5c99fU, 0xbec1ac293e4df079U, 0xbc1443493ed9c108U, 0xbdf311c8be29f9feU,
  0x3e188a9b3e8ff077U, 0xbe97112d3dd76294U, 0xbe527357be070ca1U, 0xbe124c933e4f0df5U,
  0x3cabf5413caba126U, 0xbe85b718bce29858U, 0xbe700ea43ca59232U, 0xbda3fa95be808a84U,
  0xbe4a190abd92da7fU, 0x3e21b13cbd887d04U, 0xbe82e2b43d5b281dU, 0xbdf099193e1517ebU,
  0x3e1e7d943e2f7f0bU, 0x3e0e04713e6d9a83U, 0xbd9c2cfabbc86aafU, 0xbd98df21be094684U,
  0x3e1d85febe268275U, 0x3e1b00cd3daf4a8aU, 0xbd885e84bdb91102U, 0xbdbb2970bd29529aU,
  0xbcfccca33e47fa6dU, 0x3e7f9f14bc0d00aeU, 0xbe92ed603e467882U, 0x3e4e28ddbead73f8U,
  0xbd952d073e914eebU, 0xbe6c3d76bded21ecU, 0xbebee7da3e0beed9U, 0xbcf252333dbd5a7aU,
  0xbe8e853d3ce97b24U, 0x3d53eb49bc0b4e24U, 0x3d900116be9038e0U, 0x3d8cf4ea3db5292aU,
  0x3e9f81dabc1c520eU, 0x3dcf92e1bd6685bfU, 0x3da67305be0f83aeU, 0x3d2dac69bdaaa582U,
  0xbea037e03dcb0226U, 0x3da57c5fbde8a8a5U, 0x3e6f74d5be0ed72dU, 0x3e824368bde91988U,
  0x3d42e1093ed30a70U, 0x3e61535dbe110bd0U, 0xbdff06013eaa31c1U, 0x3e3f9aa43da88d1cU,
  0x3eab40583ea29f06U, 0x3e5ef62a3c83c7ddU, 0x3e1199713ec539efU, 0x3e83c462be99e550U,
  0xbe160d7f3e0a5256U, 0xbe51d6993d8ab08bU, 0x3df07d26bde05b6dU, 0x3d5ca629bc04e754U,
  0x3e372fea3e5d831dU, 0xbdf4c455be2a6fabU, 0xbded60943cefe31bU, 0xbe33d681be8744c6U,
  0xbe0abdac3e11e60aU, 0x3df76e053e7ee748U, 0x3e4905663d04c902U, 0x3dedc5bc3e64bb84U,
  0x3e52df553e1074e5U, 0x3d6fef77bdf8c076U, 0x3e58dff6be649850U, 0x3dcd34433e316b94U,
  0x3e6c07c03e895e5eU, 0x3dcec77f3c478777U, 0xbde1249d3ead8eaaU, 0x3d8294c5be9dbba3U,
  0x3e88dde03c468b59U, 0xbde119f23e8da5c7U, 0xbe926e9a3db08fbcU, 0xbebd31403c8b5c55U,
  0x3cdce66ebe682040U, 0x3dd4f9263e65af6eU, 0x3e8d6e43be962088U, 0x3d8d6cf4bedd4591U,
  0x3df52de5be908074U, 0x3e0863fa3e6f3c56U, 0xbe75f28bbe20b10fU, 0xbc1ed64a3c9840c8U,
  0x3e740746be502fbaU, 0x3de8e7c7bd472ab4U, 0xbe9bce99be95c94cU, 0x3da88e023e6bcfeeU,
  0x3e8785fbbeda817aU, 0x3eb0b801be66f932U, 0x3c375734bee734acU, 0x3dd04ce73dfc0784U,
  0x3ecd5db2be27f75eU, 0xbdca0e20bf0607dfU, 0xbe745ac4bb097df6U, 0x3e98445e3e607312U,
  0xbc125769bde62fc2U, 0x3e590b1dbcbe9132U, 0xbe2b138dbeb17684U, 0x3e0627f2be206fe5U,
  0xbea30dd0be8214d6U, 0x3e5ac5debd0c2845U, 0x3e9a7c2fbd4b91d8U, 0xbc8b8107bc6c5c67U,
  0x3e365828be9398a6U, 0x3e69877e3e78007eU, 0xbe4df8b63be80cabU, 0x3d3e4dbd3e9deeb4U,
  0xbe664fcabe7113f1U, 0xbe6db70abea901f1U, 0xbe923d1d3cde54a8U, 0xbcd98de5be000e38U,
  0x3ea08534be2698bfU, 0x3dff17bcbe3b92a1U, 0xbdc7b39b3d867978U, 0xbe7c18d2bdfec742U,
  0xbe8fafacbe244926U, 0x3e1285493e308740U, 0x3b54c3a8beabb9bdU, 0x3ea284623cf8e628U,
  0xbcbf2d713e1b0c81U, 0x3c53a6c23dde758aU, 0xbe94089bbed78c2fU, 0x3e89bd5c3e5e6445U,
  0xbeab1166be60176aU, 0x3eb0dc763e607f71U, 0xbe7e0f7abea872e5U, 0x3d42d79d3d27d096U,
  0xbe94a026bec91c8dU, 0x3dd15d123cfe9e20U, 0x3e22b60cbd9e8ac1U, 0xbe03b825be91468eU,
  0x3d21e197be953c39U, 0x3e1b748abe377228U, 0xbe8b614a3aabc60bU, 0x3e971088beba2d3fU,
  0x3dd723d13e7fa308U, 0x3e14b758be6d4b7bU, 0x3e90f4933e6b8f48U, 0x3e10dbcdbd9f0301U,
  0x3ead919c3e31e6faU, 0x3d5c33fd3df69507U, 0x3e870ff73e9a5d3aU, 0x3d58f1b2bd2cebf9U,
  0x3ea271833ec1ea4fU, 0xbe202ca4bdc2d617U, 0x3e063c253e8ec37cU, 0x3e87c3ca3cb5a8daU,
  0xbde33f4e3e3fbcaeU, 0x3c5e85ae3e76c697U, 0xbe6c9243beaece0bU, 0x3d92578e3e10904eU,
  0x3ca83d073d8bc209U, 0xbd81196e3e3e171aU, 0xbe00db6dbc25192fU, 0x3df0ee06be89fe36U,
  0x3e211728be648a6aU, 0xbe4e8397be563003U, 0x3dd2dbfcbd16d338U, 0x3cc3c0943d0ad45dU,
  0xbe9d91edbdf132caU, 0x3da571d0bdd153f2U, 0xbd85b0433d74e020U, 0x3e9f09563ea0dde1U,
  0x3e8634f13e984895U, 0x3e00e197be356ce2U, 0x3e82b0fdbcdc4480U, 0xbcfb3097be3700bfU,
  0x3eaaa2c23e16b96cU, 0x3d0035f03dbb19e4U, 0xbe78a9ba3ee63aaaU, 0xbe62f3ee3e10ae47U,
  0x3d6e0d763e673eb6U, 0xbea086253d84cf31U, 0xbbb5a944bc2c7805U, 0xbe3144ab3d0a02b0U,
  0x3dbb65c83cdeba69U, 0xbd92a759be63c45bU, 0x3e8359a8bd94a286U, 0xbe9420e7bf1a88ebU,
  0x3e5845e53d411637U, 0xbe7ff4db3df597e4U, 0x3e6e0290be5e68d4U, 0xbcc0798f3d83cebbU,
  0xbe6d6200be2479aaU, 0xbd8eb0a93e4cd2d5U, 0x3ebeac85bdd67a1aU, 0x3c8f168c3e5ca494U,
  0x3e126286bcebb083U, 0x3e2edd9fbe7dd9e4U, 0xbcceaa223e38df90U, 0x3e6e14a6be8eb788U,
  0x3dbe95ed3f0b27c2U, 0x3d3c5de2be1a22d3U, 0x3e3c22cb3efb6778U, 0x3e6b5fcdbe3ef254U,
  0x3e0407a73e1eff4cU, 0xbe66f85cbdc45b8cU, 0xbeb1e036be02d0a2U, 0x3e4310ec3e14471aU,
  0x3e4c43213e0d8f97U, 0x3dded99ebe1c9190U, 0xbc225e60be742383U, 0x3bdd814ebe4aa121U,
  0x3e3492d4bdb62a0bU, 0xbebe6aecbdd98103U, 0xbe49c1e3be81606aU, 0x3e3a8f00be375f11U,
  0xbe05c9c13e899789U, 0x3dc34eb03e7701d8U, 0x3e496d17bd248f32U, 0xbec1948b3d731c38U,
  0xbea546e5be776164U, 0x3c985e623daf464cU, 0xbcf35b3d3e51085dU, 0x3e9fececbe032e02U,
  0xbe377484bf15d6a9U, 0xbe9b44a73e22233cU, 0xbdb5f3fb3e0b67d1U, 0xbd7f1987be4cb7b9U,
  0xbe3b96433db8feb2U, 0x3d941ec4be67dcecU, 0xbe8bb0febd28fb88U, 0xbcfaed29bf12a65cU,
  0xbe924ae5be020fbeU, 0xbe026c21bf241b2dU, 0xbf160a96bee8cc2bU, 0xbce0eadc3e412319U,
  0xbe89152fbe3a1ae4U, 0xbe3686ea3e400beaU, 0x3e61121ebea39023U, 0xbeb65f663ea6786aU,
  0xbe9a15b0be62f69aU, 0x3ecdb94f3e975799U, 0xbd8f2ad0bda4920fU, 0xbe936b373e721fe3U,
  0xbd9bfbae3e9835ddU, 0x3c5659d83d04c274U, 0x3d9c07473df40661U, 0xbe24e3663e82f8d3U,
  0xbc53be5bbd171cc2U, 0x3c585898bcebeb14U, 0xbe8d2ee0beaa9fceU, 0x3e2e87c9be6ca93fU,
  0x3cd24af53ea8c13fU, 0x3e83857dbcf20a9cU, 0x3e61df85bcfdfac0U, 0xbe70f0c73f038769U,
  0x3ea0379d3e3e3e19U, 0x3d8ca8013e24dcc1U, 0x3e45d0043e7f951dU, 0x3e30d7413ed1c838U,
  0xbc855742bd14605dU, 0x3e026ca5beda6929U, 0x3e14ba2c3eac0c8dU, 0xbe229645bdd03ef6U,
  0x3ee94f57bcf287d0U, 0x3ecfc7a83ea66300U, 0xbe17cba0bdca16f8U, 0x3de07bcf3e991267U,
  0xbe64c1bdbeaa6a7bU, 0xbed73f433eb2d24cU, 0xbed315ec3e18cf9cU, 0x3ec7c3843e66161aU,
  0xbeb7eb3fbd1fa3f1U, 0x3e06d359bb367ea9U, 0x3e4a8e8cbf004528U, 0x3d299485bebd5b92U,
  0xbe966823be423ea8U, 0xbf11211abda4bc94U, 0x3d70bb0b3e18dc9dU, 0x3bf348803e7e7b6dU,
  0x3e117046be3445b1U, 0xbd8154883dfd5d09U, 0xbd0b3d1abe4fd567U, 0x3e3144bc3e1c849cU,
  0xbec6301e3f0bae54U, 0xbc95730d3e310d0eU, 0x3d07f5103a8c495cU, 0x3f17cf1cbe0db8ddU,
  0x3eec93e73ecd86caU, 0x3d485e8a3e0117c5U, 0x3ea57b4d3eb1aaa9U, 0xbe1d727e3e532557U,
  0xbe02c23b3d3e59e6U, 0x3d5ae5173ed928eeU, 0xbdc2a400be04635cU, 0xbc6fe7e9be409060U,
  0x3b879b103e0757e2U, 0xbc6b8c373e25950bU, 0xbe3cc07f3de7ceeaU, 0x3d864ab7bdbac800U,
  0x3e6cfc0cbd34d3b1U, 0x3e0c7f45bd32e50fU, 0xbdd1ebb3be066356U, 0x3e1521483df6fd92U,
  0x3caadf1e3e2eafddU, 0x3d17d1bc3e1c9b02U, 0x3e80b1d53ddac6c8U, 0xbd6f80903e7191c9U,
  0xbe7a78e03d55844bU, 0xbdab84ff3e426e85U, 0xbe4e29fd3cbfd587U, 0x3e5146e9bdb494e6U,
  0x3db13c0ebe931fbdU, 0x3dbd5f893cd42360U, 0x3d54c9f9bd1251feU, 0xbd38e98cbdb2b4e5U,
  0x3e006203bdf3edbbU, 0x3e4ae3cfbe00f2a9U, 0xbdb45bd4bcd5053dU, 0xbb7df70cbe9397c7U,
  0xbe3400543ca0e63eU, 0xbe4856f0be14680aU, 0xbe9042e4be69a455U, 0x3deb8ea0bc838eb0U,
  0xbbc47b1ebea54734U, 0xbe635fca3dc9c9d0U, 0x3da8d93dbe2cb715U, 0x3e18fb13bc4bb06cU,
  0x3c7c2674be9c2e84U, 0x3da2b7febe3fe69aU, 0xbd035e25be0ac28fU, 0xbe4d81a3be65c53cU,
  0xbe12a53dbe4fa7b5U, 0x3db608acbdc8c963U, 0x3ace5dadbb23e2bcU, 0xbce838e1bd262c0cU,
  0x3c68df80be306dffU, 0x3cb8c77fbdd75c1eU, 0xbd7e417dbdd48302U, 0xbc6058963d2521ebU,
  0x3e5d9ea33dc38c27U, 0xbd13ffe53ec69636U, 0x3e3949a4bd358981U, 0xb9c3408abe9c80c1U,
  0x3da46cfb3d146842U, 0x3e1c83b83cbf9736U, 0x3dc8deb53dc9646cU, 0x3e31e6d13d63fc0eU,
  0x3dbe6d20bdd18846U, 0xbe46c62a3d8e6a0cU, 0x3daf1f783e13d95bU, 0x3b5d982fbdb565feU,
  0x3d83c019be5d439bU, 0x3e06bea93e08fae9U, 0x3e2e9b2dbe1d7964U, 0xbd18c83a3cae8bbaU,
  0xbdaf9b32be6ac9bdU, 0x3db996693ecd976fU, 0xbe02d3a13db5c61eU, 0xbe1d50febe2efe92U,
  0xbd892504be1234c2U, 0xbe0c1c4fbe4fd8d7U, 0x3d9fe8c03e182630U, 0xbe09d1ffbdd24f95U,
  0xbe18546cbde83d3aU, 0xbe036cddbd8b1d7eU, 0x3c306cefbdf83c61U, 0xbe01dd383d4b4c74U,
  0xbde86c90bdb439e7U, 0x3dd29c28be0629b2U, 0x3df6647e3ce6d8e2U, 0xbda59da6be616768U,
  0x3dd488fd3daabb1aU, 0xbdb37ae33d909f46U, 0x3e1c87703d8faa74U, 0xbcc688aa3c9b8bd7U,
  0x3bf9cc5fbe019c04U, 0x3c8913253d456598U, 0x3da9d1183d96d1cfU, 0x3dee08a23c012ec7U,
  0x3ce0ba7e3de82a34U, 0x3df7004fbca509e0U, 0x3e0e90e13d749018U, 0xbe15df413d1893a5U,
  0x3cffeb663db4d128U, 0x3dfb72383dc7b226U, 0xbd8fa6a13d773623U, 0xbd5ec8c83ca0b873U,
  0xbe2f58b1bdcbfadbU, 0x3dafc0c5bda7659aU, 0xbda53ac3bcba3235U, 0xbe6d93de3d020b31U,
  0xbd7e93e2bbecb75bU, 0xbdab31e23d81aa2aU, 0x3de6d07abe05292cU, 0xbe22c2653e69fbc0U,
  0x3e1b7b953a580bbbU, 0x3df31684bd7c6e6fU, 0x3d907a8bbe0776e3U, 0x3c93770f3dc78db3U,
  0xbdd0bb893da62324U, 0xbe05d8683cf33967U, 0x3e045a023d78e7d5U, 0x3de005eb3dce7995U,
  0x3db87c9c3da7bfcfU, 0x3e2663443c171337U, 0x3e0c913a3d03f723U, 0xbdc884ec3dee57f3U,
  0xb823e8dcbda9d36eU, 0xbd812db1bd5d02e1U, 0xbd8c6dbd3e0649a2U, 0x3cc85a373dd12fa7U,
  0x3dac5f77be0d9d5bU, 0xbde8c5583da3e7a2U, 0xbcfa7d773d5cf2f5U, 0xbe5dd46a3d3f28edU,
  0xbd92244ebe265ec9U, 0xbdd35c9c3dc2c9b9U, 0x3d98b451bdd32b54U, 0x3d4dacf73e1e2246U,
  0xbd8b9a8e3d70b7fcU, 0x3c8235723d8fe0edU, 0x3d777593be03c790U, 0xbd004d6ebde6355eU,
  0xbd050725bc4af149U, 0x3d85378a3dd91277U, 0x3e0c3f183dd2e61cU, 0x3ddca59e3e00173eU,
  0xbd4464ac3d76ff52U, 0xbdc52ca93cdf9443U, 0xbd470ac83d707d6fU, 0xbe3776e5be5ced34U,
  0x3db41242ba610f96U, 0x3dd1bc5abdee357eU, 0xbdb93d2cbd3437c8U, 0xbeefea3d3ef7c4a6U,
  0x3e5ea0eb3d6cd0cdU, 0xbe4f19c4bc6d8b41U, 0x3e928468bef07061U, 0x3da279af3ebbd3f8U,
  0xbe143ec1bea284a9U, 0x3e6d7670be8f6ed6U, 0xbe479a0abe2c6012U, 0xbe1eff143c7bcd97U,
  0xbe4d109fbe182076U, 0xbe9bdb6b3e843abfU, 0xbdb9f60c3eb0c156U, 0xbe9f3f1abc267dd4U,
  0xbec16724be61030aU, 0xbdf3d2b7bf13a3faU, 0x3e4c14ed3ecce0b0U, 0xbd2dc11bbee76124U,
  0x3f396b093e5d5dacU, 0x3f34aa6dbe9468c4U, 0x3eaf9d523f28444dU, 0xbed959d53f1d81f3U,
  0xbde7aa5b3dc6038fU, 0xbf1a3fa73eed5b6bU, 0x3cd113ff3f41e554U, 0x3e8a97f7bea8c1daU,
  0xbe74a4fabe6595ddU, 0x3e6b687ebe1a0040U, 0x3d8727003de7478bU, 0x3e96ab83be5d0326U,
  0xbd9c99223cfbaff1U, 0x3e1e7b633e7ea066U, 0xbdc03403bf2db205U, 0x3d39a3adbf08df94U,
  0x3e8088eebe877eafU, 0xbe395392bf1a3578U, 0x3ec7a6d2beeb0629U, 0xbdbe778abc954826U,
  0x3e0662e7bea734bcU, 0xbf209450bec40230U, 0xbf254feebea1befcU, 0x3ee590d1bf21e10aU,
  0xbf2483d63ef365b3U, 0x3f2ca250bf0314c1U, 0xbe68a8cebdcc66e2U, 0xbdabeece3bd196a9U,
  0x3f0f5427be2c8182U, 0xbe525ccbbd0bdc90U, 0xbe0e277c3efa0e4fU, 0xbeb56f25be82b304U,
  0xbe83ef0dbf29d412U, 0xbde9ee37bdf07398U, 0x3e1aa100be9417f7U, 0xbc79286cbd54a87bU,
  0xbf0ed0fdbee520e0U, 0x3e27e75a3c25b7deU, 0x3e43a925be1af6fdU, 0x3e695bc53d64bb36U,
  0xbdd7a8863d3a08a2U, 0xbd89c11bbe00338bU, 0xbea2c40bbe33f70cU, 0x3e648c18bef63014U,
  0x3c3ac9fb3f138276U, 0x3e3f0e9d3eb11542U, 0x3f150f65be20cc4dU, 0x3f120f963d59014aU,
  0xbe5ad3953e9c362bU, 0x3d1138113f4b5568U, 0xbcf563053f1baf08U, 0x3f5999593e0a8e56U,
  0x3e6b7d153e188879U, 0x3de2be03beec15f4U, 0x3e1eac16bc397991U, 0xbe56f213be4c5374U,
  0xbe41d3c1bde7f698U, 0xbd19d75f3c1d9308U, 0xbd9706493acc9e13U, 0xbe548839bdb67df2U,
  0xbe103d45bdc78339U, 0x3e454aebbe00b056U, 0xbdb61367bdc541e5U, 0x3e11141b3e65de99U,
  0x3e2fa6c43e4789a0U, 0x3e1be8b8bd944dbbU, 0x3e07813fbd93e3f5U, 0xbd83e8fb3d6b57ebU,
  0xbe3b8769be438322U, 0x3cf87b903e660153U, 0xbdaf9aa5bd573f7fU, 0x3d42a39bbde422c2U,
  0xbd0a2d0abe502781U, 0xbbed297fbe024ef0U, 0x3cebaddd3a94be71U, 0xbe974df4be226a80U,
  0xbd04f0b83e0401f6U, 0x3e91d17e3c9508bcU, 0x3dd8a72bbe1ebd66U, 0xbe3cb7debe3bea5eU,
  0x3d03fdd6bdfd5121U, 0xbe0e8d5e3d654b51U, 0xbd0e34133e2a084aU, 0x3e3308febd5ebb5fU,
  0x3e362bd7bd8bbcefU, 0x3d203c1e3e0bbd21U, 0x3e67c5a6bd936759U, 0x3b44a1483e851e8dU,
  0xbd16e09c3e923c22U, 0x3d0e4a233e4f4f4cU, 0xbdfa628d3dc06fe2U, 0x3def3043bd384715U,
  0xbe0985bf3e57f86dU, 0xbe1558703e13e697U, 0x3e6efc943d12cd80U, 0x3da75d7ebe33dbd7U,
  0x3e4cce823da29535U, 0xbd3f5b863b84e87eU, 0x3e4d2cce3d1f8164U, 0x3ca56f11bd91f644U,
  0xbe6802183dc7fb9eU, 0x3dd0ce6e3cdb80f1U, 0x3e1e7191bda118feU, 0x3d0dd159beee1b52U,
  0xbe378260be6300e0U, 0xbd81f62cbdb32636U, 0x3de7dbfc3e043065U, 0x3d39e371bd97490bU,
  0x3e11817fbe14d530U, 0xbe653b333cb8181cU, 0xbd71bf953e9a5f4aU, 0x3ddf055d3da4295dU,
  0x3daa41323e65056cU, 0x3dbfa0ed3e15f452U, 0xbd5dc02d3d8eb6e8U, 0x3e1a1a93bcb256faU,
  0x3e542bce3dac2d92U, 0x3dbce84bbeb487b4U, 0x3d32d472be5122b5U, 0xbd9e76743d965b64U,
  0x3db4613a3d014b8fU, 0xbe4545ca3d75155dU, 0xbe83c3aa3dd19bbcU, 0x3e06a8b4bd8a4ed1U,
  0x3e4aacfdbcb0561fU, 0xbaab9a85bc838294U, 0x3e064e83bd85499eU, 0xbd1262513e2d2cd4U,
  0x3e10f3b73d8846c9U, 0x3d437080bd0b3144U, 0x3c89743fbc71bb4bU, 0xbd871b3dbe33e194U,
  0xbe267f5c3bb58f97U, 0x3c1039303d766871U, 0xbd424825be5b04b7U, 0x3dc8c9793d97285cU,
  0xbe00481a3e00a205U, 0xbd291b933dde0ebeU, 0xbe14aa0fbc827040U, 0x3dcc3f843e30bfb8U,
  0x3c3c93afbdacf571U, 0x3d49df4b3ce23776U, 0xbe3dc68c3b924c1eU, 0xbdbd2f07bce964dbU,
  0x3d7324043c58c5f9U, 0x3de9e8d3bccd30f2U, 0x3d88176c3cb275b0U, 0x3de84919be0d6e6aU,
  0xbcc6df8bbe586192U, 0xbdcce8023dade0ccU, 0x3d90b699bd923abfU, 0x3d10e6563dae3303U,
  0xbca0a275bd657d72U, 0x3e1a3144bdae54f5U, 0x3e3809873dbba9d1U, 0xbdf52230bb99830bU,
  0xbda336e83dac42f2U, 0x3d80a86bbe183276U, 0x3c97ccdbbda5da79U, 0x3c80daddbdea9595U,
  0xbe267b8bbc399ce0U, 0xbe3f4017ba014b1cU, 0xbe4443c9bdecfbdaU, 0xbe45695b3e0d349fU,
  0xbdf088f13dbf6f63U, 0xbe5072443d9732a7U, 0xbe2b7498bdfb4967U, 0xbe2e47363c63dbadU,
  0x3dee49bf3d92d9e1U, 0xbe1ceba03c2eede7U, 0x3ddd23afbb5640f1U, 0x3d4be8d2bcf228cdU,
  0x3dc2a3963cfb6c2cU, 0xbd893f2a3e091e2aU, 0xbe278a00bc94943cU, 0x3dd754b2bc4512fcU,
  0x3cc2ecd5bdb30e5eU, 0xbd9a639b3d26bd5bU, 0x3d3db4633e81a374U, 0x3d3dde5ebda70e51U,
  0x3d7080143e1b707aU, 0xbbdea7fd3dc1b9faU, 0x3c2f9b1cbd4abe09U, 0xbe26000b3db72aedU,
  0xbbf836e7be17936aU, 0xbcc3bc1a3d632786U, 0xbe4c26f1bd9765fcU, 0xbe3a204d3de39315U,
  0x3e06344a3de5fb2bU, 0x3d5637a23cb07df7U, 0xbd1e1fa7bd8376c8U, 0x3d8a30b1bd7ceab1U,
  0xbe05e417bdea6845U, 0xbdf36ee33e236d56U, 0xbe3f8158bcd3efc1U, 0xbdb91bbcbdea7228U,
  0xbd5ca1b6bd18a941U, 0xbd4164933d914073U, 0x3c970244bce571c0U, 0x3dbbd7d9be682f07U,
  0x3e467f623df80986U, 0x3e777acebe54f871U, 0x3dab4d0f3e77ddb5U, 0x3e7f1b3b3e4333a2U,
  0xbdd4e89b3d4cc346U, 0x3ea4a137bdf9b38aU, 0x3d9ca6913e811716U, 0x3e4c6eb6bdf8904dU,
  0xbe9a0ded3e470d7dU, 0xbe2d2ca43dc1fa89U, 0xbdabac6abc080084U, 0xbd758fa9bd4924d3U,
  0x3da74283bd74a3f0U, 0xbe397bb63e786470U, 0xbdc6bce6be31f5acU, 0xbe3f4989be94d3e2U,
  0x3f12e513be3fc0feU, 0x3d213cf2bdc2b016U, 0x3d7c02b73df5f5dfU, 0x3e594362bd78a9bcU,
  0x3d8f8cb43e46a23cU, 0xbc2578e9bddaa0fdU, 0xbc75822a3cb9cc50U, 0x3d884282bdf7cb83U,
  0x3e1101a5bb6a9699U, 0xbd5644b93b95527fU, 0x3ceb5862bd8eaf47U, 0x3df64150bdd2bb88U,
  0x3b1f0e4b3e0c2141U, 0x3e0518773e27484bU, 0xbd7c59b43dfaaae8U, 0x3e480bf93dad6576U,
  0x3d659bba3dce06f0U, 0xbeadc8023c37bbcaU, 0xbd854777bea72321U, 0xbdf552f73e2d2afcU,
  0xbcc2a4443e523cd2U, 0xbeaee1da3db54d55U, 0x3debf5f43debbf98U, 0xbdea8f223e15d85fU,
  0x3e673d8cbe8f61ddU, 0x3be62fd43d1690e7U, 0xbe35c0e3be556369U, 0x3dbea75b3dbc9c3eU,
  0x3be5c7ebbcfbe5e9U, 0x3e8bc9823cb75491U, 0xbc9c2be7bdaf5941U, 0x3e90c31bbdc9e7c3U,
  0xbdfd20a73d31dd4fU, 0x3e97587cbe0cb06aU, 0x3da65dc93e84f98cU, 0x3d85acb6bea37c72U,
  0x3ea1eedf3cfe8172U, 0xbd8e1624be50fc33U, 0x3d214a823e9b06d4U, 0xbe04ab9a3e704c2fU,
  0xbd1233753e1c2a1eU, 0x3d83a3a3bda29729U, 0xbe6aafe83dba9cccU, 0x3b7c5ca9bc17b150U,
  0x3e6d7f3cbe1b08a2U, 0x3bee67583d1198dcU, 0x3dd310173d9d4eeeU, 0xbcce722dbdef721cU,
  0xbda8e754bdc16e8eU, 0xbdc8a012bd727f0dU, 0xbdfae36cbe78bcfcU, 0xbca017f9bddd2767U,
  0x3d633eb2bd894617U, 0x3dc21bb3bdcecc48U, 0x3e0fe3d43e2eb508U, 0xbe31145bbd8a6083U,
  0x3df4b9f5be0ae671U, 0x3dce39ed3e8bcf11U, 0xbe30a395be8c0f36U, 0x3d7997f03dcc2deeU,
  0x3e2c81bdbb178365U, 0xbe33822d3dd6d7dcU, 0xbe1f03b33d516697U, 0xbe8b7c94bddd98f2U,
  0x3dcbfbdcbe96efb0U, 0x3d0b29ef3e89ef7cU, 0x3d5149eebe99700dU, 0xbe8e0678bea78abaU,
  0xbebd97a6be0e62a1U, 0xbeae3197beb3058aU, 0x3e41f2fcbe8cf566U, 0xbd01d95bbea09324U,
  0xbe0cfa813c213dabU, 0xbd74dd5fbbc40ee8U, 0xbeb32e9abe4e1c08U, 0x3eb5a61f3e10478bU,
  0x3bd5c6983eec09aaU, 0xbd8e17623abe3cadU, 0x3e5610bcbe492064U, 0xbd9c60783e929ba4U,
  0x3a8169583e0ad935U, 0xbdf0c6e63e720ce8U, 0x3cf0b4dbbdf0641cU, 0xbe8853393d4d8d1aU,
  0xbe224cebbe7b958cU, 0x3e563d663dd7be45U, 0xbd5e3eea3d1bdb8fU, 0xbe3df9a23e31639aU,
  0xbe1736433e675c7eU, 0x3e0751aa3e93daadU, 0xbe3a4dba3d475441U, 0x3e4618333e3c3a16U,
  0xbe876b15be3d427eU, 0xbc805503bcf9f6e2U, 0x3e1f1ebe3eb6c48eU, 0x3d0482433eaeb0a6U,
  0x3c124c94be5251ecU, 0x3d0708673e6cd608U, 0x3e7c71373e66c50bU, 0xbe3e3474be2733d7U,
  0xbeb4e37a3dcf8753U, 0x3e87363c3dbe1bb4U, 0xbdd3521e3ec7ff64U, 0xbdb798e33e2280feU,
  0xbe8033b8be8412f6U, 0xbe82386bbdc8c790U, 0xbe8980c63e2599beU, 0x3d524f2c3dce4ecbU,
  0x3d0dbc4d3e0fd7eaU, 0x3eaaf2433dbd5859U, 0x3c0c68363e1a75baU, 0x3e0bd0fc3e8e7080U,
  0xbe3c5b4d3e9db170U, 0x3e9c35d23e3b4957U, 0xbe5708bcbb99ff63U, 0x3e02b689bdce0700U,
  0xbd981653bde6f422U, 0x3dadcfb73ea44057U, 0x3cd813f93ec1e6c8U, 0x3de4ccf9be7c8bd2U,
  0x3ec47599bcbd90dcU, 0x3e8b21a43b885d18U, 0x3e0495163d901aeaU, 0xbe42a92cbe599ae5U,
  0xbd1cbe0f3e0b15fdU, 0x3be19f13be01b633U, 0xbd14753f3e0c65e7U, 0xbe2c07f6be27a14cU,
  0x3e312b2c3de25aa2U, 0xbe044155bf22a577U, 0xbe832f80be4eab41U, 0x3e8c9f5fbe6ac4e5U,
  0x3ea37cfc3e058713U, 0xbeab11b7be40389aU, 0x3e886b723eb44259U, 0x3d982682bd686bfaU,
  0x3e80a3523e97c216U, 0x3e22cc1b3c140235U, 0x3e18c6e13d8b564fU, 0xbdd7c32c3f0568d3U,
  0x3da558c63e95e42eU, 0xbeb13911bc59d1b6U, 0x3ed25104be121a45U, 0xbdf93c37bf0587c6U,
  0x3f19c3c7be8233d9U, 0x3d90f526bdcb8b63U, 0x3ed4a4dc3ea05c53U, 0x3d82c9c9bd3a150fU,
  0xbe1b2c593e682432U, 0x3f0efde33e901013U, 0xbe72fb13beb34e7fU, 0x3daa57a73ea61be9U,
  0xbe996c893d9f122aU, 0x3de0785e3da43ba6U, 0xbe325f8fbe5d7e70U, 0x3d232e593e0aee54U,
  0xbe235d2bbe10a25aU, 0x3e6ea8efbc0742d5U, 0x3e5e6db53eb89de3U, 0xbe294e943e988645U,
  0x3e5956673ecf1b81U, 0xbec94a9c3e565ff7U, 0x3e21dd77be85bd34U, 0x3e3e16ec3d89e80aU,
  0x3e0f3ccb3df7158aU, 0xbe9a58183d13434fU, 0xbe0cca4c3dd0cccaU, 0xbe5de8b4b9b80041U,
  0x3f0f7752bda450ffU, 0xbdac1aa53e6b437bU, 0x3f02d50a3d540cebU, 0x3e1cb3edbe1858adU,
  0xbda589f33bc3624fU, 0x3da7677ebd200c75U, 0xbebad6503eab09a5U, 0x3e423c2b3e5118d1U,
  0xbe55b7253e3edc78U, 0x3d9d95d3be961ad3U, 0x3e305ab4be3fc2b2U, 0xbe474d7fbe6078ffU,
  0x3e7ed0d53edc92d7U, 0xbdbd2f483e552d38U, 0x3e1c6d8c3e18056fU, 0x3e253ba3bdfdcfd8U,
  0xbe456d223f057652U, 0xbd07fd88beae03e6U, 0xbed8aefebe9b41ccU, 0xbe8641433e8e190dU,
  0x3d86abebbe384a1aU, 0x3eb727e13e3ddf2fU, 0x3aeede9fbe586065U, 0xbe3c8f45bee50b15U,
  0x3e3b24743e094083U, 0xbe05ed53be6d2f6aU, 0xbe40a2893daed9c5U, 0x3d46de8dbf2cdedfU,
  0x3e2a978bbe003f58U, 0xbd7dc6493e48d084U, 0x3e0fc4253e167ce5U, 0x3cd0ef6a3df175c7U,
  0x3df58f6e3ddaddf1U, 0x3e2fc6c93c59b865U, 0x3e035edfbcdba654U, 0xbe156978bde3af72U,
  0xbe6eb727bebb28eaU, 0xbe07e36e3e0d0991U, 0x3e084d90be8b1c09U, 0x3daebf4c3dfe45b1U,
  0xbe5969843e254c9dU, 0xbdb18420be3f0f1bU, 0x3bb2a64c3d8788aaU, 0xbe7db6503cdc00b0U,
  0xbd869aaa3e06c143U, 0x3e8dec403c55c7b3U, 0x3cd27c093e712084U, 0x3e235065bdc7389dU,
  0x3e688e7dbd68883fU, 0x3e7b5ceb3e255e46U, 0x3e905510bd4e51e8U, 0x3eadc3763ea697d3U,
  0xbdef9c953e19b25bU, 0xbccb99efbdf9b755U, 0xbe0a276b3d994b11U, 0xbc86fa80be125a58U,
  0xbd1f863abde85092U, 0xbd132ff53d32d236U, 0xbd73abacbcbe663fU, 0x3cdb5297bcfce0eeU,
  0xbcbd53d6bea58739U, 0xbdcf46c1be54bec0U, 0x3d786e57bd2320f6U, 0x3d94a67f3dcbcb5aU,
  0xbd97986f3d78bb03U, 0xbe9f5c35be66f93fU, 0xbda03f933d2fa13eU, 0xbe68d732be553f3cU,
  0x3b22a39cbe3ce00fU, 0xbe2ae215bd7d014cU, 0xbe693038bde3f396U, 0xbdf99d043d2e7506U,
  0xbe195152bdb056c5U, 0x3bf889b6bd962fb5U, 0x3d4864d13e23b56eU, 0xbe1b8472bc74893dU,
  0x3d14aca8bdc8d27bU, 0xbe0cdbbabdf3476aU, 0xbe2d4a4e3e37027fU, 0xbda01050be9fbc8dU,
  0xbe1cb6c0bd08e99aU, 0xbcac6c18bc840db9U, 0xbd325886be1ccdd0U, 0x3d934416bc4f3abeU,
  0xbd9da6eebe817e58U, 0x3cc1ba3fbda75e03U, 0xbd82d3c0bdca9475U, 0x3cf3ef4cbc8858dfU,
  0x3d97cda03afe0dc9U, 0x3d1688e7bda7cb96U, 0x3e65c0f2bcb066fdU, 0xbded9e01bcea7123U,
  0x3da98f393d771c15U, 0x3d26d7113b77e643U, 0xbe11823bbe034e61U, 0x3da8df41bc468badU,
  0xbe5c89fabc368128U, 0xbdd7fa0abe8c2d85U, 0xbd31d5233ddca989U, 0x3db2ed8abdec636eU,
  0x3e3bec6b3cf5131fU, 0xbe7d667cbd6e208eU, 0xbdcd4acf3ea1b70bU, 0x3db2de06be788cedU,
  0xbe723f36be82e19bU, 0xbd669fb4be8541f4U, 0x3d3381063b765955U, 0x3eb4bb06bd143428U,
  0xbe303e7ebdeb2294U, 0xbb9f54eebe71a54aU, 0xbe1a8bf23e2d9717U, 0x3ca7e9f43e96ade1U,
  0xbe5aee343daa1920U, 0x3d8aa6b63eb6b3eaU, 0xbca53f783e93cc41U, 0x3de0933a3d17232cU,
  0x3e38f0273c95dbc0U, 0xbdcb1d75bd136445U, 0x3ea66201be0ab9d9U, 0x3e62cf03bd1a6246U,
  0x3f4177b9bd75a742U, 0xbd2dd105be89e01dU, 0x3ec7b22b3e99c514U, 0x3d38227cbe05367aU,
  0xbdd0eca93d984038U, 0x3eafdd553daf515dU, 0x3e8457debea9da18U, 0x3e277332bd1dc42aU,
  0xbdd21f8ebe822e3dU, 0xbe913b45be0fe4e0U, 0x3daaf78fbded6fbbU, 0x3e9235d5bdfa75f0U,
  0x3d1dcf40be276789U, 0x3df8e73d3dfed228U, 0x3d8d5da03e52e620U, 0x3e7bb9533f14ed4dU,
  0x3e71e76cbea54c2eU, 0x3c2ed2b43e46dacaU, 0xbd7e9feb3c978ea0U, 0xbdea4721bec54a4eU,
  0x3e867b0c3d216ef5U, 0x3d93065cbe05e585U, 0x3e29d41c3e83106fU, 0xbe9d5be23c05217eU,
  0x3c92a4fbbe96d79aU, 0xbbbe8bf63e9431d6U, 0x3ec18356bc9ac91eU, 0xbf0fab56bdb1ee51U,
  0x3e4db5dabe8c7232U, 0x3d71fed5bdf9d06eU, 0x3e1eb30a3ec383beU, 0x3e52ebd83d846357U,
  0xbccf6633bd3c549bU, 0xbdb24143be4f67f8U, 0xbe56bc3f3dc40b57U, 0x3d30ef76beadc211U,
  0xbc94bfc63ec9ffcfU, 0xbe30e4943dd61cd4U, 0x3e8181f1be55b652U, 0xbe22cfaf3e324100U,
  0x3e1f90373ebb1c1aU, 0xbd9a00c83d89184fU, 0xbe0dc6cf3c749059U, 0xbe1c70783e004566U,
  0x3dd81f44be8d3541U, 0x3e7850dcbe141581U, 0x3eaf93bb3dd3bc1fU, 0xbd42241dbe5eb64cU,
  0x3e8d0688bda69905U, 0x3b01ae50bdee8c61U, 0xbd1208dbbda35185U, 0xbe6688c8be0d3b29U,
  0x3e5e7b78be14dbc7U, 0xbde29855bd4da116U, 0x3e4d2aa93f0d6c7fU, 0xbda3574bbdfcc123U,
  0x3de73ff43c53dfc7U, 0x3d9dcfe13e60a4f4U, 0xbcedf639be84a166U, 0xbe5c14f8be988798U,
  0x3e0ebae63e371ad9U, 0xbd1d7d22be382bd9U, 0x3e8400e73bdaa5a5U, 0x3e3834fe3f084886U,
  0xbddc1431bdf3bd11U, 0xbeabbbe5be0ca343U, 0xbe45abb8be33d4a9U, 0x3ea9c9d1be2a31b7U,
  0x3ec6948c3e35029bU, 0xbe1005a23da4aa51U, 0x3eae42153cd1cd4eU, 0xbe516098bdef06e1U,
  0xbdff8e2bbe4d8f9aU, 0x3e0087093e1b5048U, 0xbeb6fdcdbe022edcU, 0xbe18f2b4bedbe8b0U,
  0xbe5a122e3d1bcbcfU, 0x3ccb0c28be67d38dU, 0xbe80fdf03d4e4956U, 0xbc907a7cbe375562U,
  0x3e1060713bd3de48U, 0xbe8ef0d8be682c40U, 0xbe2a2919be9bd6eeU, 0x3ea5d4ab3d51ddcdU,
  0x3dd23f5d3e87709fU, 0x3d4dd1f2bc995f25U, 0x3d9155bd3f102fe4U, 0xbe8b9f26be8085c4U,
  0xbd747e123ef2cd51U, 0xbe7d4795bc0505b7U, 0xbe033133be951c16U, 0xbe2d2c6b3ed0b4dfU,
  0x3e9997613e30eae5U, 0xbd81ff8abce88402U, 0x3da3a821bef0c050U, 0xbdcd815abf0b36fbU,
  0x3f1479e23e87cbe9U, 0x3e8bb4dbbd8a7cc2U, 0xbe1e3a783e144be8U, 0x3f0e31443de78b6dU,
  0x3a7880c73d31336fU, 0xbea034cf3d8e9119U, 0xbe8e5573beafdee9U, 0x3d5fb4d0bd9aae30U,
  0xbe0f04bd3e21425dU, 0x3e352933bd8190daU, 0x3e2137e1bd66d655U, 0xbd988d79be8268f2U,
  0xbe2e16153e0123b7U, 0xbdaef7e8bdf341d0U, 0x3b29d9f73bdff2b2U, 0x3e83c9c1beafd845U,
  0xbe030ce83ec8bd36U, 0xbe9b5ef5bea6d22cU, 0xbe5157763e14dbeaU, 0x3ed9e0813f077986U,
  0x3e8bbdfbbe4c9a48U, 0x3e92c58ebee380e2U, 0xbe6d1105bd3b7363U, 0x3e8b220b3ece0d7fU,
  0x3e43605f3d215e80U, 0x3eb6348d3ec909e9U, 0xbe6295783e341cf8U, 0xbda6bb7cbe9c0552U,
  0xbdeba7143f042ff5U, 0x3db2d044bd6de466U, 0xbde816663c371ad8U, 0xbcedda7c3cc034c9U,
  0xbe3cfe513dd155c6U, 0x3dd80c4c3dd58489U, 0x3e20576bbe831575U, 0x3de93ada3d85d7f7U,
  0xbe48ba18be0f52b4U, 0xbe02999f3c1e12f4U, 0x3e8261e5be6525a6U, 0x3e49880dbd89e00eU,
  0xbd004bf9be1abb76U, 0x3d41814f3e2da642U, 0x3dfbc2b4bdba3d46U, 0x3dad773bbd9a1f96U,
  0xbe84f61abe8c490aU, 0xbe93a99fbe558c4bU, 0xbdb2fa1cbe966c95U, 0xbdf3e234bd8b0a2dU,
  0xbe5e663f3e491b95U, 0x3e86d59cbe290f3eU, 0xbe7e8d913e7d7af9U, 0x3e8b5674be4ada39U,
  0xbd4291d33eef00f6U, 0xbed95d96be920e7fU, 0xbe1c2ee63e1ff2fcU, 0xbd188ad3bdf36f14U,
  0x3dda9b2cbe95e11eU, 0xbeb1059b3d181f95U, 0xbdf5cfe3be11375eU, 0x3e66de303d2b47d1U,
  0xbdffad753e2f33a6U, 0x3e5d2e903e65b773U, 0x3d06603f3e4ad27eU, 0x3e6091903ae0c532U,
  0x3e42e82ebe227375U, 0x3edf50f23eadb09eU, 0xbe3604a93da156c0U, 0x3e9139093cc79ed4U,
  0xbe72bca3bea40958U, 0x3deafd9dbe8e6c96U, 0xbe87a7f1bde21895U, 0x3e0888173f05b2d3U,
  0xbcf4f6c8bdbf5652U, 0xbe616b793f053adfU, 0x3e866de8bd2d31d4U, 0xbe504715be792e78U,
  0xbe8ae79d3e2039f6U, 0x3e08068f3df366f5U, 0x3e3b9b883ebeaaa9U, 0x3dba23fcbcdc9146U,
  0x3e351d65be6b6152U, 0x3da681533de803d8U, 0x3da29f26bea12538U, 0x3e90255cbe1057d7U,
  0x3da9b21abd9b0218U, 0x3e89ce1a3e1391e3U, 0xbe7638aebcd60419U, 0x3e9993ee3eb68c61U,
  0x3df04e9f3e95244fU, 0x3e31f559be35f137U, 0xbcb5eb1abe9cccbeU, 0xbe2bb65a3eac6f80U,
  0x3d9529473e79f93bU, 0x3e1242333dc62c59U, 0x3e35876e3dac0e0bU, 0xbe3d0243bdddebe6U,
  0x3f05bb343d82b144U, 0x3dc7af90befd9210U, 0x3e1755c23d518e29U, 0xbe58e7213d108ddcU,
  0x3de1ddabbe6edc06U, 0x3ddbe60d3e84927eU, 0xbe812740bb1d9497U, 0x3cf5c4d1be256249U,
  0x3ce60f4c3c271e22U, 0xbdc7a49bbdad3019U, 0xbe1c06fabe0f31baU, 0x3d149c74bda93722U,
  0xbd4b7451bd73b4c6U, 0x3b9bba963cc7f89cU, 0x3ded0cf73c87c2d7U, 0x3d7836433d464d2cU,
  0x3dcb55b23dddfdf1U, 0x3d5f733c3e36d0b9U, 0xbcc35d03bde50554U, 0x3dd8b517bdac2355U,
  0x3d5a59cdbd9feb7bU, 0x3dbf800d3dfa6decU, 0x3c873ada3e305a4aU, 0x3d8aaee33da6a0bcU,
  0x3d95b2babb609eceU, 0xbc36b2c63e1b9dbdU, 0x3d871b323cbe26d8U, 0xbd0bb84ebe4a4d8bU,
  0xbda5bc0c3e116ec5U, 0xbe5c0a0dbe1b594aU, 0xbd523fc23e299dc6U, 0xbaf0f474bccef5dcU,
  0xbe2caa7a3d045f9aU, 0xbdaad3dcbe56be44U, 0xbdbe18d9be4ad2c6U, 0x3d276b5fbd9a3c11U,
  0xbdf83fb0be07c493U, 0x3dfdcd13be1c8154U, 0xbe2031bebe1bd4b1U, 0x3d94b9b4bbe9e344U,
  0xbdd1fd9cbce2cd14U, 0x3d5f01353b8d588dU, 0x3d06a4023d1c874aU, 0xbca3bafc3e3722afU,
  0x3913f2ff3b5c37d9U, 0xbd6c6aadbc09fa73U, 0x3e644f7cbdc13db3U, 0x3dd9757abb47edceU,
  0x3e41c6f0bded0299U, 0xbdd803bcbcc65f4bU, 0x3c031a32bd8666d3U, 0xbe0508f8bc711a9eU,
  0xbd717b2ebcc4f2f0U, 0x3d99bc433d1e7ebdU, 0x3df4c2ccbd73fa7fU, 0xbdfdc43bbdfad693U,
  0x3d96bd83be08d547U, 0x3d9cdac43e0c4093U, 0xbe4acc15be3e62e9U, 0xbc9a1221be0b2792U,
  0xbe36b86a3dbbb6a4U, 0x3d0a03b33d21aae2U, 0xbd5eef3bbe2e9258U, 0xbe35c171bdfed75aU,
  0x3dea65e5be0cc224U, 0x3d855959bcd24b99U, 0x3e3d2b573e14670bU, 0x3e0b02ce3e712c34U,
  0xbda3355abe19239fU, 0xbd6106fbbd319215U, 0x3da7637c3d3b9314U, 0x3db259eebdabcaf2U,
  0x3e0a2cd9bcba34ffU, 0x3e1867f93e1b0ff1U, 0xbbe051e63d50a9e6U, 0xbcf4a8683c98096bU,
  0x3e0ed6a8bda38340U, 0x3dc281a43d8dc00cU, 0x3e06d01a3dd71ae0U, 0xbdaf81533ce544acU,
  0xbd2b79b53d1009a3U, 0xbdfbda0ebc16987bU, 0xbd6238dabdf9bc97U, 0x3c6b3a323b211f2bU,
  0x3d7605ae3e3c8d82U, 0xbe0795a7bcdfc3feU, 0x3d0b1d3e3c8cbf43U, 0xbdbc8b08bc71651aU,
  0xbd809b22bc7a19d0U, 0x3e16bbdc3d80d9b4U, 0x3e6398903e2aa88fU, 0x3c82b7fe3d179dc0U,
  0x3dc4aff8bdb200b7U, 0xbe10fc043d64c117U, 0xbc7aa32b3dd8ae30U, 0x3e6be0873e3ca846U,
  0xbd95aa2d3e4a66ccU, 0x3e09006d3e09c2fdU, 0xbd9a40543df7a119U, 0x3dd2a9733d630381U,
  0x3e00fa363e3b4c9bU, 0x3e03d2be3cca74b3U, 0x3d1772a2bd841fb2U, 0xbde6c106bc3663f3U,
  0xbe37dae1be0f3009U, 0xbe028638bcbe06b2U, 0xbdeadd7dbd140ee9U, 0xbe143935bd259b02U,
  0x3d4ca61cbcc80933U, 0x3d0bb38ebe59e609U, 0xbd9e6d48be052fd1U, 0xbe0c657ebda8344bU,
  0x3e3735a5bd561382U, 0xbcbf05c7bd9864d1U, 0x3e0c817fbddd06a8U, 0x3dba53d6be3612e0U,
  0xbd8691cabd047f45U, 0x3e01b8bdbead3ddcU, 0xbdb2093bbd74f549U, 0x3d3d90043c856deaU,
  0x3db14c443e0afa2aU, 0xbccc83d63cfc3f1fU, 0x3e0d89fd3e068531U, 0xbd709b2ebd935d78U,
  0x3db368a9bcd40a8bU, 0xbdb8e42ebd89c87cU, 0x3d84fdc33c00823eU, 0x3c0055c9bd558098U,
  0xbdf4402ebe278d96U, 0x3e0c8d683db25b30U, 0x3e0d1d13bd283be8U, 0xbc42cc8f3d47c93cU,
  0xbe016e96bda0efcbU, 0xbd83113dbdd6bd6fU, 0x3c5f9b38bd0d0cc8U, 0xbd84379dbc5fc028U,
  0x3d20e5b03d49ece8U, 0x3dc40e2039f7759bU, 0x3ada2fe3be1d2a84U, 0xbcc796c63d2f0186U,
  0xbd320ab63db02f1bU, 0xbe03d1b03abe806fU, 0x3db389d0bc3f4339U, 0x3cbe656a3e1ad985U,
  0x3d8b2b3d3e1ba861U, 0x3dfea86c3d86d568U, 0xbacbb663bd30fbaaU, 0x3d72f93f3ca59cdfU,
  0x3ded32e8bc8aa154U, 0xbe2c1aa33a24718cU, 0x3d1468e83d781fb6U, 0x3e4a491f3f3f254eU,
  0xbdb584a23e6e187cU, 0x3e80c34f3efbf47aU, 0x3ec8271d3ece4f4aU, 0x3e76b417be759cd7U,
  0xbdb545bdbe8a03f1U, 0x3d0db633be85df9bU, 0x3e8741523dc8d26aU, 0xbe9070e3be9e8ad7U,
  0x3e12f2d83edc93d1U, 0x3d173cedbe6d2b6aU, 0x3dca64f93e643f4cU, 0xbdb54d2c3e432f52U,
  0xbec8b1153e292949U, 0xbf15fcf93d0ff407U, 0xbe93435abf0622a6U, 0xbee7a1673e1b969eU,
  0x3d207c413ef7922fU, 0xbe8567c03ef23334U, 0x3e31d7063e1aad46U, 0x3f6a68483e5c85a5U,
  0xbcbaf6843f0a9debU, 0x3d766e6a3d42b251U, 0x3da478ad3e822e76U, 0x3ee7c1b0bc543666U,
  0x3e74f9d4be76105cU, 0xbea406733df96d75U, 0xbe835a623da9d971U, 0x3e3162153ec2738cU,
  0xbea872c63e2cbc8dU, 0xbedd6d343eb78721U, 0x3c6318df3e2bfcceU, 0x3f0f99edbe91511aU,
  0x3f123328be0aa0b8U, 0x3d3a17a03eb5937fU, 0x3edb3624bec5f02cU, 0x3eb16455bd6d5087U,
  0x3ed2a94b3ecb5ee6U, 0x3d1e9d6ebe8de31dU, 0x3eb45c923caf6cecU, 0xbf0bfcfa3ef5c525U,
  0xbf6e3adabdb4913bU, 0x3e1c87b0bd6a987bU, 0x3dc5fe13be61c8a4U, 0xbd1316683d93f84dU,
  0x3ed1edd1bc5e78b1U, 0x3e0f45bb3ecc2dd1U, 0x3e288ee13db618f1U, 0xbe9b84013f25940fU,
  0xbe81becf3eb0673cU, 0xbedcea5a3ebd82c0U, 0xbee1c121bcfc5e68U, 0x3f402d733e616dd9U,
  0xbe884a9abf0162c4U, 0x3f39433dbaf45b37U, 0x3eb091923e474e49U, 0x3e101ccabe7f7054U,
  0x3e133f523e96ee92U, 0x3e5d16fb3c736303U, 0xbeefa0e43ea66a15U, 0xbe7c796e3dba0d70U,
  0x3e4f2f5f3d94b46dU, 0xbe0eccf83eca65c0U, 0x3eea48a2bebbc45eU, 0xbe8780b4bdebb9ecU,
  0x3ebb25733e8115a7U, 0xbc0fd9933e7178d8U, 0x3f0aa2683d5a2465U, 0x3ecc5accbe0eb164U,
  0xbeecb241bf392464U, 0xbc0d2402be9f9bd4U, 0x3df43e413f1bd26cU, 0x3e0d2bb2bd9fb122U,
  0x3bb390e3bdfe0598U, 0xbdc465983deb60ccU, 0x3db2fd463d6f9131U, 0xbe340558bc211777U,
  0xbe2571af3d8eda6fU, 0xbc5809893c9cd93dU, 0xbdc755983e159dceU, 0x3de6328fbdaf3b4bU,
  0xbdc2172f3db1270aU, 0x3e05c656bd846fd5U, 0x3d036137be38cb50U, 0xbd3bbc663d1ab0aaU,
  0xbd3924c4bce47270U, 0x3d5d70e33e00fccbU, 0x3e4996d13df0cf14U, 0xbdd8de733d41672fU,
  0x3cca81bb3bb8a8dcU, 0x3d7ac4a93e0d3384U, 0x3ddd9af63e1d9d20U, 0x3e168f3c3c14f983U,
  0x3c709d853d2611dbU, 0xbdf9e39dbd925bd4U, 0x3dd2c0a3bc89d823U, 0x3d8766f7bdd1783dU,
  0xbd9170c0be2bbb87U, 0xbd8faaf6bd671d5cU, 0x3da74c273cb3d57fU, 0xbe0533253cdb4dd9U,
  0xbd305a28bd497322U, 0xbdd2089cbe1fa9eaU, 0x3d21c6f0bdae4851U, 0xbe04c652be963375U,
  0x3e230fa6bd9f86acU, 0xbe368c483e120ba9U, 0xbd6d3c963e1c34c3U, 0x3d1947823ca2e1a0U,
  0xbe17ec65bde0e94dU, 0xbc1e09a8be35dc6fU, 0x3e0036c5be5a8406U, 0xbcea7eb6be3f194eU,
  0xbd9532edbd0426f2U, 0x3e14dc4bbe583a63U, 0xbded010cbd4de5c5U, 0xbd8c5910bcbf87b3U,
  0x3db4cae13de1feffU, 0x3d2bc595bce5a16cU, 0x3d98887f3d15e346U, 0xbc87256f3d37087eU,
  0x3d5f6c793d049754U, 0xbe13e1e33e7e09e0U, 0x3d8d7f60bcb06cd4U, 0xbe4c1c67bd2d594bU,
  0x3e0f84103da9e67dU, 0xbd91e0c23d41b144U, 0x3ce0136a3cf9e12eU, 0x3dd9a310bde6fccaU,
  0x3e2e00e1bdec77bcU, 0x3d21c75b3df976ceU, 0xbca63558bcee46c1U, 0x3dd284a7be48d0ddU,
  0xbe349fd3bdb5b3ecU, 0x3beda0a6bdbccf06U, 0xbdc909f9bd8f989fU, 0xbd2a167a3d1fbdb7U,
  0xbbdd4f473dce281aU, 0xbd5a302fbc15831eU, 0xbcd19543bdc639deU, 0x3d5dc352bd0002feU,
  0xbe0ff03abe2e36ceU, 0xbe41aa8fbddaac53U, 0x3cb994643c86f791U, 0x3dd4daae3cd77f2cU,
  0x3e8bd5ae3d6c251fU, 0xbdfcdd79bdd85879U, 0x3e3fd26d3da7636dU, 0xbe2275783e0cb1d5U,
  0x3d664bbf3dc7347fU, 0xbe0c79e43e068ad2U, 0x3ddae4a43da0c277U, 0x3e03043fbcd4cdc9U,
  0x3e83da86bdf61ed8U, 0xbbd641a13d11b6dbU, 0x3e8aa2233e32c197U, 0x3e6adee43e23e073U,
  0xbd16ca7e3d4fbb8cU, 0xbd9b139f3d0c0da0U, 0x3e0eb33f3e02ed5eU, 0x3e175594be02e9b5U,
  0x3e6f26dbbe0c6e96U, 0xbaaae547bda375e1U, 0x3d8407eebd525129U, 0xbdf8140b3a9f2bbfU,
  0x3e090d323de61342U, 0x3d53c9863dc9d8b7U, 0xbe31d2b8be380d08U, 0xbc59a7763cb8b886U,
  0x3e5c0866bd6e35b2U, 0xbcec2076bd800bd2U, 0xbce98427bda5ff50U, 0x3df02b7dbd899aa8U,
  0xbe5dcecabd8ba0ceU, 0xbe10cfc0bd35ba3cU, 0xbbd609843e351d97U, 0xbd344f393dceb7fdU,
  0xbd2610293decf38eU, 0x3e4dbd0b3dc32b35U, 0x3e366cefbd195193U, 0xbc83fd20be036e8eU,
  0xbdb05986be6a97aeU, 0xbcb9adaf3e37ac9dU, 0xbc197f6bbd7b0b3fU, 0x3dd777d7bea0317aU,
  0x3e5c84dabd1f32a7U, 0x3e027fb4be50caa7U, 0x3d65a83bbdc1a876U, 0x3dc00841bd8629c8U,
  0x3db7f061bdda9ae9U, 0xbd4629773d656952U, 0x3e75c2aa3ea7fba9U, 0xbe3352f1bd3a8c71U,
  0xbd99dfca3dcc8c35U, 0xbdedcfeb3d64a7eaU, 0xbe498cf53dbabf90U, 0xbc63ade03d9a8e2bU,
  0x3dc071b0bca9295fU, 0xbd8d3cc53e044d05U, 0xbd56e7c9bd606d99U, 0x3d2d3be43e0e3f2cU,
  0x3cec6c9dbbd83b67U, 0x3e09ff4bbc9db93dU, 0x3e3c9523bd6e2778U, 0xbd09db513e23b8bfU,
  0xbd589c013d946d13U, 0xbe563761bd71865cU, 0xbc352938bd906482U, 0x3e5dc5f5bde2c06cU,
  0xbd6b823dbd947acbU, 0xbcb930bfbc3f35abU, 0x3de213403e262c31U, 0x3c8dc52cbe79ee79U,
  0x3e17481f3c271af1U, 0xbd01863c3e240b93U, 0xbe225b55bcc95f16U, 0x3d1a3cdd3da4f937U,
  0xbd4fa9b53e028b8fU, 0xbde13fa33c59de28U, 0x3dd564b3be0f762eU, 0xbe3d69cbbe294e60U,
  0xbe2077bfbe00b2f0U, 0x3ece160abdda7f0bU, 0xbd12afbebe0b0c0eU, 0x3e90d6d1be13804aU,
  0x3e41a08f3ce9829bU, 0x3e93187e3e127dc1U, 0x3e85ae9fbe470d37U, 0xbd8e4ba8bde7b9a2U,
  0xbc8da2a93e205a95U, 0xbda825c2be647702U, 0xbe0b3e04be121f53U, 0x3ca49aa83e346904U,
  0x3cb379aebbfc92aeU, 0x3dc5ca97bdeb360bU, 0x3e78d8183d9547a7U, 0x3e969c8dbe1f2ff1U,
  0x3dd1ef673e72c53dU, 0xbe22ceb13e4e2687U, 0x3a86e0e93e99f15fU, 0xbe83388bbd8632e6U,
  0xbe0cd3053e19068cU, 0x3ddc79de3c002478U, 0x3da4712fbdb651aeU, 0xbe29d1773e342cf9U,
  0xbe024954bdf5fc87U, 0xbe6866293e549774U, 0xbe666a563de3ee54U, 0xbe0eecdfbe04d62dU,
  0xbe1842413e265875U, 0x3e8ffb44bad23a15U, 0x3daef84a3dadf050U, 0xbd317fdcbde8a0aeU,
  0xbd882251bda24c12U, 0x3c9a4abdbc539a9dU, 0x3d0efe413e257dacU, 0x3e9975c4be748f3fU,
  0xbbd7d3d2bdd11bf7U, 0x3e40c419bdbe8ee4U, 0x3e18deb33e22e6e1U, 0x3de065563ddfd03fU,
  0x3e267cf9bcb08526U, 0xbdfeff843d1d2853U, 0x3e18602fbd8164b0U, 0xbd41729e3ec1a7d2U,
  0xbd8041fd3e19c139U, 0x3da611563dd664c4U, 0x3e071d06be43614cU, 0xbd0835f8be38dfc2U,
  0x3d5e43f23ebc99c4U, 0x3d643b90be41fe4aU, 0x3e59610a3e694588U, 0x3c82046ebd0df5e9U,
  0x3d9f2c24be19530cU, 0x3e35e81a3e33673eU, 0x3e85a6d8be3ef963U, 0xbd398b93bb8e185dU,
  0x3d686cbbbbfbfbb2U, 0x3e3287d6be14d470U, 0xbe0bcb933c4dafa5U, 0xbc9b3855bc57c5b2U,
  0x3e8258ca3ddf2a41U, 0x3e3a3a56bd750af1U, 0x3e50c2093e43e6f3U, 0x3db7b38d3e5adae1U,
  0x3cbeba1b3dc5fed5U, 0xbc880246bd1a8927U, 0xbdb4efd13dd47cf6U, 0xbe3fa406bd93228dU,
  0x3e21cd83be3b6221U, 0xbd216f76be40ee71U, 0xbd8b966a3d6730bcU, 0xbd31aabbbd7d4265U,
  0x3e616781bd985b71U, 0x3da0f1a4bd90e57bU, 0x3e21e4713ddf5fc6U, 0xbe2ad6493e01e0d2U,
  0x3dd581b13e2c8cb2U, 0x3d242c1d3de1c1dcU, 0x3c5fe2ecbd8698e8U, 0x3e0b5cfd3d4b3320U,
  0xbdaee3d73e11b290U, 0xbd863bc13d702dedU, 0xbcacbacd3db8ffd8U, 0xbd0a80d33ea47d1cU,
  0xbe5ccca23dbb0c13U, 0xbc93d0a83e94af33U, 0x3d2cccefbe099b8eU, 0x3e840ef53e28092bU,
  0x3e6dbda63e27a5b7U, 0xbdc55c6e3cbe034aU, 0xbd83805a3e63eee5U, 0xbc153c473ea750d6U,
  0x3d79f592bd7183b0U, 0x3e453ad03df2984fU, 0x3c4572fabd34ed46U, 0xbd478622bdb96b4cU,
  0xbde4e520bcd4893bU, 0x3e8ac598be3a8feaU, 0x3db9c89dbe8e5d4eU, 0xbc4a1533ba7c2a53U,
  0x3d988c4f3e4f2471U, 0x3dcbbb5ebcefb41bU, 0x3e1d49253e498c5aU, 0xbc91d5303d09f4bcU,
  0xbd03fab9be33a7d5U, 0x3cf752b5bda4a99eU, 0xbd22bfcabd832d82U, 0x3e6536e6bdfb4747U,
  0x3db4abab3e251c9aU, 0x3d7f6d763e1e40c9U, 0x3dc75f553e1ffdd5U, 0x3df7a1eabd0fe73dU,
  0xbc49e53d3e7d1eb9U, 0xbce5550ebc50d49fU, 0x3d6f44583e03c6b5U, 0x3d8c764a3d91414eU,
  0xbe690fa63dd579dbU, 0xbe221d713e2eb435U, 0x3dbb7f86bcbc6751U, 0x3e149f68bde12c0eU,
  0x3d6039b83ea61de6U, 0xbd4c27b5bdf5f52dU, 0x3d300f3fbb9f2490U, 0x3dd6c591bdf44cadU,
  0x3e1414623d9b30e8U, 0x3e15f8debe0bd828U, 0x3e843ace3d345382U, 0xbdbb58203d471644U,
  0x3e48891f3b0a1943U, 0xbda23338bd34b9deU, 0x3e19a0fdbe2e6641U, 0xbd050dd5bb9f4e11U,
  0xbe1a9e373cf442baU, 0x3e4fadc23b23e0c1U, 0x3e3c29fbbd016410U, 0x3e29db183dbffee9U,
  0xbc3f79193e4eb096U, 0x3e63f79bbda35c51U, 0x3e18c406bd2e8016U, 0x3e7969403e6b0ef9U,
  0xbc8d41833da8bf57U, 0x3e834ed9bd80b280U, 0x3e0019c23e03fb6dU, 0x3eb7981dbbc56ca9U,
  0x3e2034bf3de50f54U, 0x3e606a73bde5e198U, 0x3bc9b6fe3d56e1eeU, 0x3da83fbcbe0fd567U,
  0xbc4de56fbdf97a5cU, 0xbda4d55b3d21e0ddU, 0xbe994d97bd6cf9e5U, 0x3e4567373dd438f1U,
  0x3d802064be4118cfU, 0x3d6e6a513e434027U, 0x3e8df78f3d27edc2U, 0xbe7e857fbe656b5dU,
  0xbde47ac4bd9c118fU, 0x3de2d1583ea6c35fU, 0x3dfb29703dccc226U, 0x3ce975d5bda813d8U,
  0xbe91ee1b3e4b81f4U, 0x3e280017bd059136U, 0xbcd1a10ebbd9a608U, 0x3e6065ebbcbfacccU,
  0x3e9609b5bde0d9c1U, 0x3e86552f3e7c6a6fU, 0x3cb9ec39bdc62775U, 0x3d232071be3e84e4U,
  0x3d9963073e21ca5cU, 0xbd5de04ebcfe1b3fU, 0xbdbb5a593eae0a11U, 0xbe0ab9753edd85d9U,
  0x3d9acbef3ba8cb43U, 0x3dac59723e6c0067U, 0xbd2c7b083e6aa786U, 0xbc9442c9bea26addU,
  0x3d9e881bbead6277U, 0xbc323eb4bd8d3055U, 0x3d8077ad3ebf03eaU, 0xbedba2273e3e9e7aU,
  0xbec25063bd92bc47U, 0xbd3510633ea260c7U, 0x3db60545be100b19U, 0xbecaeed23c583de5U,
  0xbdf26ef9bd7dea4dU, 0xbd920f313cc3b3b9U, 0x3e1b1da2bd677593U, 0x3e77c2303e593917U,
  0x3e577930bd30a457U, 0x3d2180a2be7f1334U, 0x3d4eefeebd9c89efU, 0xbc9bd069befb6cdcU,
  0x3de4cd17bcba501bU, 0xbe1e292fbcb397a4U, 0xbb80fb0a3e215d6aU, 0xbcb94d083e538ec6U,
  0xbdd8b5243d593ee2U, 0x3d8a9a893e1a9263U, 0xbe7a4a153deeab04U, 0xbea4cb803e2b0e96U,
  0xbc044abfbcfc0afaU, 0xbe681ad13e851cddU, 0x3d7b85463e84d2c0U, 0xbe89b282bcfec6bbU,
  0x3d9cf27dbe97d8e0U, 0xbdbe87ebbeb74424U, 0xbd766d933dfe913eU, 0xbee331893d0c54acU,
  0x3d7e190bbefccd93U, 0xbdf604513d4c00e9U, 0x3e2e337c3d39542dU, 0x3db3a6fcbe5d074eU,
  0x3c0d9319be0d7b49U, 0xbe349e19be71d1d9U, 0xbe426a5bbe6d8678U, 0x3bb7e98cbe97057dU,
  0x3ea834a03dfafab4U, 0x3a8e9c23bcb2ec1bU, 0xbc97e4cb3dda8b30U, 0x3d852a403da0c621U,
  0xbd3fb7a7bb97f587U, 0x3de069d0bd97a4a9U, 0x3e6d9336bdebf775U, 0x3e1a50523e0bafd3U,
  0xbe0c664abdf1471bU, 0x3dd4c0e13e38d11fU, 0x3e487aca3dcf8944U, 0x3d1181233e81ac83U,
  0xbd36dde7bdb5f59aU, 0x3e3542c9be3e376cU, 0xbe22ac4ebc8735caU, 0x3e0b29ccbeaff397U,
  0x3cba3ffb3dc00d53U, 0xbe50de5c3e1c5d4dU, 0xbdb085263e5ee851U, 0xbc99bbe5bd377e4eU,
  0x3e6ba4693b4815dbU, 0x3e31ebe23dd908c0U, 0x3e09d0033e5f0771U, 0x3ec8b0503d8f6158U,
  0xbd5e28d53dabbefcU, 0xbdc8a10d3cb9b322U, 0x3dfe0bc53e23166dU, 0xbe0a0ba83c78d890U,
  0x3c99398f3e9ab2ebU, 0x3e6d2ea7bdfdfff5U, 0xbd9a27cb3d76f3beU, 0x3db28a783dffea91U,
  0x3e525703bdce62a3U, 0xbde05611bd95ad18U, 0xbdd33b9ebb7b56cbU, 0x3da0ff8cbd81a71eU,
  0x3e0aec8ebe0d3e7aU, 0xbe246bb03e76edf4U, 0x3dc9984e3e6386eaU, 0x3e290a6e3e2e0e83U,
  0xbe15313b3e458971U, 0x3e0f5a693d0b30a3U, 0x3cb3d6913d85b5bbU, 0xbd3bc4e23dd56eeaU,
  0xbda4bfa73e09f5e0U, 0xbcce6b3bbdcadf1bU, 0xbd34d2c73d5c3badU, 0x3e54ef773cf32ebcU,
  0xbd56ef38bca47544U, 0x3e94cbd33d898292U, 0x3d84b8613e461c8bU, 0x3e87779e3e40c672U,
  0x3df4f6fc3e193411U, 0xb8a147933d9787e3U, 0x3e653d0ebe66f4c2U, 0x3c7acef7bd29a7c5U,
  0x3dc4dc4c3e425e4eU, 0x3db234f1be03395eU, 0xbe001b82be167a52U, 0x3e0392733e2de893U,
  0x3e1b51fa3e5b6f0eU, 0x3bb7ec48bda8135fU, 0x3def140c3dd4ba3bU, 0xbe09acba3d170d33U,
  0x3bc460fe3d21a129U, 0xbdc7e2e13df7ef78U, 0x3dd0fd923dbf119dU, 0x3e90afa3be216c9fU,
  0x3db28097be262c67U, 0xbdd9ce4fbec5ed58U, 0xbe858614be12f367U, 0xbd88aab9bd42cb03U,
  0xbdc5d1e43d3f97f8U, 0x3e51e21a3d1517d5U, 0x3e7de1833dee8d22U, 0xbd9f669b3e0bfe43U,
  0x3e6ec1bebe5a7a50U, 0x3d53e1ecbda2646dU, 0xbd463d8b3ea7fcddU, 0x3dc8fcc1be9e833eU,
  0x3eec310d3e9fb9c6U, 0x3e5e36623f200e7eU, 0x3e8304b3bcfc6878U, 0x3e7e9b6d3f3087cbU,
  0x3e485009beb01398U, 0x3e90d0293e58bf62U, 0x3e788c883f0afd87U, 0x3f0dda2fbda95c88U,
  0xbe9b3fb8be5fb685U, 0xbed66398bdaa089bU, 0x3e0b5414bbf45413U, 0xbe8bbf40be06e72aU,
  0xbd8d96cebe9c511aU, 0xbea8c721be50238bU, 0xbe62ad7bbdf5a4e0U, 0x3e0be9f53e37f389U,
  0x3e86b1663da243dbU, 0x3d5f816f3d5dde29U, 0xbe5332db3d6dd20fU, 0x3d9a57d23ebfaff4U,
  0xbe0f38cbbef48fc5U, 0x3c90dec33da4855fU, 0x3e43d0b23e6964f4U, 0xbd23fcfc3e232165U,
  0x3ca8c198be450115U, 0x3ce0af58bca3d9f7U, 0x3e3ef83b3f1d3177U, 0xbe668feabe472928U,
  0xbed88e24be4f7189U, 0xbe5e86c43ef9c647U, 0x3de97e5cbead176fU, 0xbe4b60153e3083a2U,
  0xbc56f9c2be828ba7U, 0x3cb07f493df82794U, 0x3e2658903e2e8c78U, 0xbe04a35dbe876a2aU,
  0xbe12eee33e638a42U, 0xbea7daeabde95ecfU, 0xbe283521bd8546f9U, 0x3e0be4f3be3e80e2U,
  0x3cf428ecbe2ba36eU, 0xbaf234b4bd24cc4aU, 0x3e9e1c01bd86d199U, 0xbe5e08513eb018c6U,
  0xbdcc10533cf73cb0U, 0x3e9fb0ecbe0c5f75U, 0xbe7390e53e92f3c8U, 0x3cb4bd95be8ff16cU,
  0xbdc0c2b33e117794U, 0xbecf974d3e4d9548U, 0xbea1c5133e4eb78fU, 0xbe4eb4643da2863eU,
  0xbef176c1be99156fU, 0xbe488b86be73f0c2U, 0x3e5690d2bddeba7fU, 0xbee0945e3f246d69U,
  0xbe382cb53e0d6dd9U, 0xbe7556b93e6f3223U, 0xbde161323f2c1ae0U, 0x3e72af5ebeda1180U,
  0x3eeb9b81bd8933d6U, 0x3e9f473abe1f970cU, 0x3e2378033e9ada0fU, 0xbe1997e3be00e0fcU,
  0xbdfaa632be1dede0U, 0x3cfc965a3e366754U, 0xbe6852453e364d80U, 0x3d15fca83e867862U,
  0x3da65a363dd62f14U, 0xbd6efa29be5c73f2U, 0xbbf2ea2abdbd7a0dU, 0xbda2dd7fbc32e9ceU,
  0xbe2cbfecbdaa0530U, 0xbde89f3cbe144e22U, 0x3e0c2b5fbda30fdbU, 0xbe459a683de874f5U,
  0xbd9e453b3d13df56U, 0xbbb46c90bdb4a924U, 0xb887fff9be9be6ecU, 0xbd8170e93dcba4acU,
  0xbc3fcb163d880e17U, 0x3e1f50b93d0f0b7eU, 0xbe5789f9bc5d80dcU, 0x3dacf3e03d99fee3U,
  0x3e83e2363e1bfbecU, 0x3eb256473e1f14daU, 0x3de819ebbd877d0fU, 0xbe97477f3c4550ecU,
  0x3e0695f5bd47e48eU, 0xbc1596143d93c8feU, 0x3e3f5fac3eaea282U, 0x3c48a43fbd0a024fU,
  0x3d8b26a43da9a9beU, 0x3ce4451e3e44be85U, 0x3dfb7fe1bbd64722U, 0x3e3cbdc5bc960639U,
  0x3d9642443d3df540U, 0xbe25118b3d5307dcU, 0xbd6bbd44be32c1a6U, 0x3d76dde13d92f7bcU,
  0xbd36127abe5cb2bdU, 0xbb76ef05bdcf8230U, 0x3d805bd4bd4c57ddU, 0x3ea82568bdedea3eU,
  0xbd6cd3adbdeb0b35U, 0x3e289b6b3e31535fU, 0xbe7192153d65b4b8U, 0x3e1b69f63d40f496U,
  0x3ec755013dae7968U, 0xbdd474023d0321faU, 0xbdc620f03e2dc524U, 0xbd1e54febe8d0c4dU,
  0x3e1427db3e0ff119U, 0x3e88b333be5e9090U, 0xbdf713d43c45cffaU, 0xbe047206bea53333U,
  0xbe7e9aa2bdda67a2U, 0xbdf280bf3c1e15f9U, 0x3e8aaa403dec00b4U, 0xbd1f630bbd943749U,
  0x3e46d5193dfcd8c0U, 0xbde96464be7a5cb7U, 0xbe1feb85be8a6e14U, 0xbeba9ccdbd80bb94U,
  0xbe88a514bd88a4f1U, 0x3ba35943bd4c2e6aU, 0xbe91b074beadf7b3U, 0x3e3cd5f33dcb680bU,
  0xbd22a8b63df5850eU, 0xbdd271703d8e013aU, 0x3e562d4bbe191625U, 0x3e18b3513b565485U,
  0xbe53460d3e23d0a3U, 0x3d66b980bd477622U, 0xba8073c0bd76ebe6U, 0x3e1e1407bb65cf4cU,
  0x3cb07cd93df9606aU, 0xbe1ea22abe139a79U, 0x3d76458e3d8de090U, 0x3b8e3859bc834b48U,
  0x3e1aae323da6dd4bU, 0x3e23706a3b61f9f6U, 0x3e068be23e307325U, 0x3e62ef1d3db4e816U,
  0x3d8839f4bd3d2e4bU, 0x3e5e1dfe3d9be697U, 0x3dfbdd83bdba48a2U, 0xbd6f4a4e3e57c961U,
  0xbd8b681f3e2447c8U, 0xbc0b3aa03cae257dU, 0x3e573b55bbe0f67eU, 0x3e97fd933eb44ab5U,
  0x3e70140dbaa611adU, 0x3d81140abdb91817U, 0x3e2471573c889272U, 0xbdba5a53bca765aaU,
  0xbe7b9395be1bcd46U, 0xbde000a23d287fc0U, 0x3da34a1dbccd4233U, 0x3b8077bb3dd3423aU,
  0x3d98edc83e10e166U, 0xbc8f05c03d4abc82U, 0xbe136815be847910U, 0xbde704fa3dcba39cU,
  0xbd9437b33e069d40U, 0xbbf0d9a93e4393bcU, 0x3d222f62be6d7f78U, 0xbd878acebe018a52U,
  0xbdefbd54bcefc307U, 0x3de3a4c8be25ec57U, 0x3dc3e24f3ccaf284U, 0xbd9d3465bc80fb58U,
  0x3be7170abdb9be1bU, 0xbe0b208f3e0abe17U, 0x3d6793d7bd5eda74U, 0x3e71b62f3d7f1ad8U,
  0x3c1a2bee3dda4f90U, 0xbe246e903e14af9eU, 0xbd1300363e1ce4b7U, 0xbbc2daa23e230e72U,
  0xbe143093bcfa5863U, 0x3e01c1b0bcbfc56eU, 0x3e47c5b5be2abf38U, 0xbcbb3f243e32012aU,
  0xbe0382d0bd4e2b02U, 0x3d838bb3bcc1358aU, 0x3e2ec460be5a14ceU, 0x3e19b8703df94041U,
  0xbd38cdfbbc5d4338U, 0x3e4648bc3e3c2580U, 0x3dc4b542be34d81eU, 0xbb4e040a3e850f69U,
  0x3e27355cbda780a3U, 0xbd5a7c48bcf7b04dU, 0x3e3628f23e321d71U, 0xbc0795523ee3efcdU,
  0xbe33721b3c43bfbeU, 0x3dd02a573e71cf01U, 0x3d5a05f83dedd071U, 0xbb55b00c3ead75a2U,
  0xbdd2c26bbe045137U, 0x3e25b5483e08830fU, 0x3e065ff93c53d65aU, 0xbcba7252be464442U,
  0x3c9d1c7cbd971779U, 0xbe03e148bcd151b7U, 0xbdadbc003eec4b16U, 0xbe7f77e0bebd98abU,
  0x3e76343d3d3473b8U, 0x3ee08c183d686532U, 0x3e7ddc6a3eb4d086U, 0x3f0936763eb79c18U,
  0xbe91e2a4bd363d76U, 0x3e85ee4fbd17d087U, 0xbee04763bd8a9935U, 0x3d2b558f3e4aeed7U,
  0xbed722be3e325c37U, 0x3ee31152bc359645U, 0x3ce19b9f3e83641cU, 0xbe31c466bf2b0610U,
  0xbd274410beafb9d9U, 0xbe8fd83cbeb9d9b0U, 0x3c3b1558bd837113U, 0xbf1f478abe729813U,
  0xbe6ebeafbecfc8bcU, 0x3e9c33d93e573dceU, 0xbe5607833e7ce6e9U, 0x3ef2ce423e57427bU,
  0x3dc0d12dbe01dd79U, 0x3eab3a3f3e5a353dU, 0x3ec09cda3eea5c30U, 0xbda15cd53d9768c1U,
  0x3da8cd013e3c8eecU, 0x3ec6b8213d93313fU, 0xbd77a2fa3f0127feU, 0x3cd18d513dc1f2ebU,
  0x3dc69f503e076792U, 0xbec742753deaf0bbU, 0xbf04ded8bf27eec3U, 0xbc9ac70cbc90ac20U,
  0x3e8f54953e9d7f97U, 0xbebad305bbcf2dd0U, 0xbda2252abd1c6172U, 0xbea110bcbd8034bdU,
  0x3f3c8b71be9b591bU, 0x3e4eba43bc5d752aU, 0x3da4b7f43e5885ffU, 0x3eb9522f3effd299U,
  0xbea71b1fbd12197fU, 0x3b1f67a43f0ad4deU, 0x3f065987bda0d40fU, 0x3db8dccf3ea31493U,
  0x3ee1e7c93e5b0482U, 0x3cb7b162bed1b404U, 0x3d87ec31be301da9U, 0xbe2ef29ebeb44caaU,
  0x3e7e741b3e1f798cU, 0x3eb94a1c3de664cdU, 0xbe615685bdd2e918U, 0x3e91bdf6bef22f35U,
  0x3d6fe5f43de46d6aU, 0xbe8b56023ea18a2eU, 0x3dba76993e366e10U, 0xbc8937a73e80cfa1U,
  0xbd802583baea48f0U, 0xbeb0aca7bea8cdffU, 0x3e2c8bb1bdd02a29U, 0xbe32f6be3e85efb3U,
  0x3dc7964c3e0171a4U, 0x3c0cca0ebf0e1785U, 0xbe7fc1c23e399b09U, 0x3edfd263bebe9f86U,
  0x3eadeedb3ea17d27U, 0x3cfb0d513d17908aU, 0xbe4f56a23d26b6ebU, 0xbe0427413e75cbbaU,
  0x3e355b3fbc78e54dU, 0x3e1d319ebe050a5dU, 0x3cc8afb53dfda5dbU, 0x3ebf862bbe41087dU,
  0xbe56afa93de47ecdU, 0xbe081214bdba5db1U, 0x3ca61b493de40dfdU, 0x3da5f3f43e6f555dU,
  0xbe4dfd273ca81a1aU, 0xbdd4f6b1be160936U, 0x3c4896493e826203U, 0xbdc14df9bd723214U,
  0x3e17cdc03db8e4f7U, 0xbe6f93ee3ddfbbacU, 0xbdf55d593dc4c3e2U, 0xbdc1091abe5468f6U,
  0xbda4abefbdff564bU, 0xbe35136d3de5aaf6U, 0x3d48b3863e28199fU, 0xbdf77fcdbd05e12cU,
  0xbde9d0f03d9fc720U, 0xbbc69e42be3ae7d0U, 0xbe005dad3e440d14U, 0xbccf19e43d9b3a04U,
  0x3dab4e6abe2312a3U, 0x3b864fd0bd873722U, 0xbe1dcd5d3ba4e9e7U, 0x3c03b964bd4c3857U,
  0xbae0c3fabe0e483bU, 0xbe32d913be60baf4U, 0x3cdce3163e68d53cU, 0xbe7181433e32d345U,
  0xbe8918b2be0bf085U, 0x3daff3ce3d564330U, 0xbe0da0663d354e77U, 0xbe721e5ebea3528cU,
  0x3d3fdbbcbdf3ef11U, 0xbe43aa69bdfef207U, 0xbe04ae04bd858ac8U, 0x3debe823be883fecU,
  0xbe4b55d33e11c1b1U, 0xbe425a35bdc88e87U, 0xbd059decbe4d9d03U, 0xbe244471be4fd910U,
  0xbe015268bdcd2e0bU, 0x3dbbb177bb9a1191U, 0xbc57d94e3e28470dU, 0xbe2fad663e1f4566U,
  0x3da752703cbc56d5U, 0xbcfeb3fabe057b31U, 0xbda51ca3be1de13fU, 0xbdb7a04bbd3db522U,
  0x3ded7767be37a804U, 0xba518a9ebe1364bdU, 0x3de5c6aebdc83fd7U, 0xbdfe513f3d0a6d66U,
  0xbe134d3dbd308b3eU, 0x3d99037f3daf38eaU, 0x3cdc4e593dc017fbU, 0x3d9861f9bdb2b46eU,
  0xbdfaffb5bd2ba328U, 0x3c4293debe1883ecU, 0xbc83b8d83dffddd8U, 0xbdf6fe26be8da60aU,
  0xbd77643dbd6d1ee6U, 0x3d88d4563d3169edU, 0xbd8f6e8d3dcdef47U, 0xbe45c0623ded6f88U,
  0x3ddc52a9bde99d30U, 0x3e06ccabbe3e70d9U, 0xbe0edd0fbe92877bU, 0xbd989991bfd21b09U,
  0x3f698b513e03264eU, 0x3f76f0a2bf06ae64U, 0xbedde25a3d291980U, 0xbf8eda953f9687ceU,
  0xbe6c67853f81f52cU, 0xbf8074173d9487d7U, 0xbf8993693f58eb7bU, 0xbf201de5beebd8c8U,
  0xbe949618bf0d48cfU, 0x3dafdecabffc94ebU, 0xbf891229bfa1ee48U, 0xbdbcd75cbf961665U,
  0xbe818cbebfc04ff5U, 0xbf7ef35bbd4c9615U, 0x3f946821bf0b4b50U, 0xbe1ee295bdd71a59U,
  0x3e907d74be50961aU, 0xbb28100dbdef8ea7U, 0x3e91c25e3dcea0eaU, 0x3d4d971abe13cc9dU,
  0x3d95f1a3be411257U, 0x3d6d2025beb06a22U, 0xbd3062533c82076fU, 0x3e8ace8c3e073b6aU,
  0x3e8a9b913ccaec8bU, 0x3e88dd9c3d89d560U, 0x3e36d2193dff41beU, 0x3e0c2b623e55e9a6U,
  0xbdb46bbfbd7cc76cU, 0xbc95d733be56cb73U, 0x3e808e783eac8c3bU, 0xbe483639bcce7c7bU,
  0xbd40189a3eb315cbU, 0xbe1d1ee23e4e11f4U, 0xbcb0e3d4bdbba95aU, 0x3d634cdfbe308874U,
  0x3d80d6c03f1336acU, 0x3f435f533eb6adf2U, 0x3d079e413ea6ce9fU, 0x3edb1ba33ec2a6b7U,
  0xbe09a6c0be32ae5bU, 0x3ec30f18bc4cb0a1U, 0x3dd0e4823e3caa09U, 0x3ec6a7c2be7fb47aU,
  0xbd763ecbbdc0ff96U, 0xbf6c1e403ee2e401U, 0xbe7b21793e020aedU, 0x3c39a69fbea183bbU,
  0x3dd58341bad0a5c8U, 0xbde57f53bea15ed8U, 0x3d641b663e409ee3U, 0xbe81178cbdd91680U,
  0x3cbf04e63e470e44U, 0x3ea39d183e5550f4U, 0x3e0b1398be5d2ff6U, 0xbe4a406cbcca845cU,
  0x3dbd89c4be62b3eaU, 0xbe804a93be2ae159U, 0xbe175d85bd46366dU, 0xbe84d0173e68c282U,
  0xbe9f6fefbd864b9eU, 0x3d54df7d3d324a87U, 0x3e7e22673e1a2567U, 0xbeabdb5cbe39d059U,
  0xbe40a82a3e294729U, 0xbe618c14beaef0a1U, 0x3d6b6f4f3dcb91bbU, 0xbea98924beb1e0a5U,
  0xbe9789f3bc043841U, 0xbe0e99533e976ee2U, 0x3eb31c573db00dddU, 0xbe1c22e8be984eb4U,
  0x3d5ed4613d5b38ebU, 0x3bbd786c3e30e0dfU, 0xbd8b94a0bdb18b08U, 0x3e43d00bbeaf27f1U,
  0xbe9211eebe41298cU, 0x3e768b0b3c09f487U, 0x3e32e0673e259d67U, 0xbe10ccf03e6c92a3U,
  0x3edf61a53eaa3d18U, 0xbe4c77273e5042dbU, 0x3e14a06abee3af03U, 0x3d91ae0ebf1ffc16U,
  0xbe46c2043e428adcU, 0xbe2cc04a3e6edc0aU, 0xbeaccf35beddd55cU, 0xbd8046a13e3fd38cU,
  0x3db43c86bcf3131dU, 0xbe900587be92022dU, 0xbc8ede43be26bb5aU, 0xbe155b13be25d9ddU,
  0xbee0ab8f3e77c3e2U, 0x3d5a49d23e6855c9U, 0xbe5a534b3eb66eb5U, 0x3d31cae73e81cdb8U,
  0x3eb218373e5ecb1eU, 0xbeacb44c3e19ee95U, 0x3e220fa53e62afcaU, 0x3e06c529bccc266dU,
  0xbeabc8ba3d11b4bfU, 0xbea3287e3eb4f24eU, 0xbe9d7361be3dc294U, 0x3eb52958be95f260U,
  0x3dd9cdd63ea916d8U, 0x3e3c79c1be3c9ecbU, 0xbea5e43cbe8af15dU, 0x3e993a5a3e8597c9U,
  0xbe20f7e2bda7c88dU, 0xbdd33b073e8c4c99U, 0xbe1239ab3e3b0c62U, 0x3e5c454a3b03897cU,
  0x3e6d63debe0754f1U, 0xbe2a25fe3eac4468U, 0x3e28c0ee3d8b05d8U, 0xbea433383bd88d4cU,
  0x3d34fa073e55c45bU, 0x3db76ea6be237c15U, 0xbdeec8a6be894211U, 0xbe614ec33e9c07a9U,
  0x3e5e80413e2ed88bU, 0xbe60fa8d3eaf777fU, 0x3e9048663e4cd4f8U, 0x3e9f280e3e4b1ab1U,
  0x3e539791beae8d9bU, 0x3eab31a73e35bed4U, 0xbe94fc843e865683U, 0xbe98e052be25a905U,
  0x3e628818bf176474U, 0x3dd07390be9f70d7U, 0x371c6cb53d7aaddeU, 0x3e5c33f93e63918fU,
  0xbd03c7e23e04e3c6U, 0xbe1f04723e4b95ebU, 0xbcd2ff68be715aceU, 0xbe2201f1bed97d2eU,
  0xbd96bf9ebdf65edcU, 0xbd303f16be940692U, 0xbdd805423d5a9064U, 0xbd08d9e9be07fd0dU,
  0x3df92e04beb7660cU, 0x3e3836833dbc288eU, 0x3ea38df3bec9ac0dU, 0x3e570355be221d5aU,
  0xbceb84bfbe45cea1U, 0xbd11cd013d39266dU, 0xbea30d7dbe9fe8afU, 0x3ea5d13c3e8a4b1aU,
  0x3e5dd6593eab4190U, 0xbde14b0f3d24b02bU, 0x3e2ad7b8be9a0630U, 0x3e5d2edf3dcdac86U,
  0x3eada3603e9e3358U, 0x3dd8fb36bdb14a5fU, 0xbe53dabfbe5e602aU, 0xbe5083913deb9077U,
  0x3eb472ba3e6448fdU, 0x3e7a2675bdd4b9f8U, 0x3e936fa23e8004f2U, 0x3d0d8860bd63ebebU,
  0xbe160e06bdbaa5b1U, 0x3e4bd6913d5675afU, 0xbe0dd8413dd3964cU, 0x3d2a26723cb46eddU,
  0xbe4962cebe1fc0a7U, 0x3e54b6f73e46e4ccU, 0xbcce26d4bbbcbeabU, 0x3d8cb880bda25b4bU,
  0xbddc52593e067702U, 0xbd6a7a7d3d977883U, 0xbe519da1be0752a5U, 0xbc9765b9be1d87e1U,
  0x3e5809983d17b00aU, 0x3c4ff3e1bd0523cdU, 0x3db44c193dd92592U, 0x3e88832a3cc7b18cU,
  0xbdf6bb93be849b2eU, 0x3e062b69bd939991U, 0x3c02f0e73d1e9636U, 0x3e2211583e9a0861U,
  0x3e2010ba3ce0d0bfU, 0x3e1bdde73e7738baU, 0x3dda990b3e57af97U, 0x3ea8e88ebd730fdfU,
  0xbe0fddae3da98700U, 0x3e985494bdda3c17U, 0x3bb775723dbc55bdU, 0x3df697143da2f4caU,
  0x3d4432843d159a4bU, 0xbe9a53d73e89f698U, 0xbe05a34b3e85d420U, 0x3d952dafbd23a8aeU,
  0x3df0b2b9bdb9b2fdU, 0xbddf22d0bd806eaaU, 0x3d5286febdb3af03U, 0xbd4e79b53e405cfbU,
  0x3d5f04c33e4c0d72U, 0xbd8723e53d84e8ffU, 0xbe0010d43d880c2dU, 0x3d9ab9293d300291U,
  0x3d135bc03d866992U, 0x3c9e3c44bdfaaa91U, 0x3e4df8af3d27ecf2U, 0x3d815952be335dd2U,
  0xbde4001e3c79cf75U, 0x3e34683bbad1af23U, 0xbe09df333e4fa16bU, 0x3e3684fc3e1725f0U,
  0xbe3a10a33e0b5915U, 0x3e03f3dd3d27c2f5U, 0xbe556e3cbae9d108U, 0xbd3eccc8bb61a003U,
  0xbde4f183bd9a21fdU, 0xbde96c843e434ddcU, 0x3dcd5324be27c37bU, 0x3cf1eb573c8e6d69U,
  0xbd96e70cbe0d203fU, 0x3e4567bb3e4052f5U, 0x3e4dd703bd0c2d3aU, 0xbddcae7abb5ea182U,
  0xbd9088983d4d11f1U, 0x3dd5a7d1be15f3edU, 0x3d8c570a3ca8e020U, 0xbe3786e13e66d7eaU,
  0x3e8a60453e87ee9bU, 0xba028eea3e628c52U, 0xb7ca8da9bd010ac7U, 0x3e075a28beefc8ddU,
  0x3dfe8580bdb179d9U, 0xbdf7da683e319bb1U, 0xbdda06cebecda64cU, 0xbe12bdd63e4f0405U,
  0xbde4d90d3e545cabU, 0xbe643861be024b08U, 0x3e96b2533d5119e4U, 0xbd68804c3d82a8ccU,
  0xbea575c33eaa614cU, 0xbd4417b8bd8e6673U, 0xbe1d34663e3714c6U, 0xbe4fbfdbbe011e9aU,
  0x3de5e4773e529345U, 0x3e0ec59a3e0601c4U, 0xbe2899fa3df19c64U, 0xbe1db250bb88ff73U,
  0x3e129f2f3e4f8732U, 0x3d0361bc3ce41ecdU, 0xbe294d4c3dc5516aU, 0x3db9dedfbd42faa3U,
  0xbe0c8e1ebdcb127aU, 0x3e1c0f733e1b79dbU, 0xbe24b6babd27d53cU, 0xbdafcaa1be55dd64U,
  0xbe3d697cbc6ae704U, 0x3daa6108bc97ba71U, 0x3e2cf31dbd731aa8U, 0xbe460d723e384952U,
  0xbd2e35ccbd68a6a6U, 0xbd6b97a4bdddac06U, 0x3e5a4d8dbe2a2b30U, 0x3e2c090ebd8c726bU,
  0x3e3c8871be1fd43aU, 0xbd491011be1ecb6dU, 0xbb897d90bd27b33fU, 0x3c5e77abbd3624b9U,
  0xbbe860853c8cf0baU, 0xbde477babe52393cU, 0xbd4ca7483df73cb7U, 0x3e5bc89ebd881ebeU,
  0x3e5aa9cd3e570105U, 0x3ddcc3a73e26dbe9U, 0xbd20c782bb09f592U, 0xbd8c1d73bde39616U,
  0xbdf86cb3be242445U, 0xbe154fa3bdb05decU, 0xbe224d51bd604bf7U, 0x3dfab26d3dcdd408U,
  0x3e5c1270bb20aa7cU, 0x3e0abf413e2416eeU, 0x3e0d732b3d8a6152U, 0x3de200f73d84327bU,
  0x3e05f626be3c1da3U, 0xbd126d4bbd481ecbU, 0x3d7a0eae3e0490a1U, 0xbe20cca13d8e2244U,
  0x3cb26e36bdb35efeU, 0x3e2a2427bd33b4d4U, 0x3e595c33bdc1d1e1U, 0xbe36ba173dc8fc90U,
  0x3d14dbea3ca6e6d1U, 0x3dac0780bce8fc5fU, 0x3d8785f83d105fd0U, 0x3e56bde0be4e9ff3U,
  0xbd8d82f03e3fb04dU, 0x3e4e78493dafdceaU, 0x3bd2df533b3782a0U, 0xbe0c35ebbdc1667dU,
  0x3e360f7fbc107e3eU, 0xbd8692c0be1b7eceU, 0x3d97c8303d2b4785U, 0xbdcabd8ebdc3e9d5U,
  0xbe0d1a66bb96d84fU, 0x3e41d5753e547b44U, 0x3dfa135abddfdfe7U, 0x3e3a602cbdc25cabU,
  0x3e213b48bd32c6dfU, 0xbe2554c2bc9906f4U, 0x3c810440be5e7722U, 0x3e6803f3be1960d8U,
  0x3d850e1abde13539U, 0x3d9c047d3d668222U, 0xbe40a9c53d81c361U, 0xbe1a9240bc5a0b35U,
  0x3a1e40bdbe123df2U, 0x3dc62b06bd3711a2U, 0xbba95e31be449907U, 0x3e5c82763e3301caU,
  0xbc78d6f1bdbcb3b5U, 0xbdaa9a90bdedec17U, 0x3da20222be0a5179U, 0xbe37ba46be5903d1U,
  0xbe406f7abdae4b21U, 0x3e31a50c3d9bb685U, 0xbd63df9b3e13a467U, 0xbeb66a65bc09ec23U,
  0xbdfc7917bd19e598U, 0xbed41c4dbbffe840U, 0xbdc147f53e9316dfU, 0x3d4e44ce3d82c272U,
  0xbe0e33483cc8b0afU, 0x3e729b2abd7a2771U, 0x3e4e796abe754cd3U, 0x3d8aacf33ebc62b7U,
  0x3e1eda3f3d8ce0a8U, 0x3e958da7be11df41U, 0x3d62480bbe272d7dU, 0xbe5e25e0be4839a8U,
  0x3d867646be0f2f04U, 0xbd6a492fbdd89c72U, 0xbd81d6b03d7357beU, 0x3def6440be01d196U,
  0xbe5e29553e4d08bfU, 0x3d792b243e2d68aeU, 0xbe03a496bdf1dc41U, 0x3e397c413d080bc2U,
  0x3d0392bb3d7cf78bU, 0xbd6df0e73d845710U, 0xbdcdf756be34b769U, 0xbe1a072dbd402b0bU,
  0x3decd4663ddc552cU, 0x3d8f9296bc6e279eU, 0xbe1933433e461f28U, 0xbc9ed2cebdbbd939U,
  0x3e59e3133e098e91U, 0xbdf964d33d12677eU, 0xbe109d16bd57efafU, 0x3d9e09323ce19410U,
  0xbd8702793e026e27U, 0xbdae473ebe506837U, 0xbe09ff09be16b20cU, 0xbe18ef883d577acfU,
  0xbe4e6810be17ec23U, 0xbe5d66d03ddf22c6U, 0xbc764438bcce515dU, 0xbe152dfd3dcd9f90U,
  0x3da621febe63f6cbU, 0x3e03bf56bdcba2a2U, 0x3e09a8c0be3daf2dU, 0xbd03edecbe9be223U,
  0x3dddbb9abebdeab8U, 0x3ca7ab493dadf143U, 0x3e1b484b3c1bc31fU, 0xbdc922273e6d8496U,
  0xbd4685ae3d71491bU, 0xbe859d75bdbeeef3U, 0xbb9998ae3e8fe2a4U, 0xbe274a59bed6f969U,
  0x3e60fdafbe94513bU, 0xbc9ce8f13dc0e6f1U, 0xbcd17c39bdec1f66U, 0x3d95c34ebe97d5dbU,
  0x3ed85fdb3e1b5175U, 0x3d3489d53e16a7e4U, 0xbdfee038be780a2cU, 0x3d7ad5a5bdab79caU,
  0xbe4e37b63e347bfaU, 0xbcd4acb33d4150ebU, 0x3d6679b03daf0665U, 0x3d7f8499be193b33U,
  0xbe468d78be68e1efU, 0x3e3db23abd1e6e51U, 0x3e065789bde80a51U, 0xbd2469a53b4d15cfU,
  0x3da1eabd3e19b1ecU, 0xbdf6af90bd8b6698U, 0x3bb1517fbd026defU, 0xbe317ca9be147285U,
  0x3e3649a63e43aed1U, 0x3ce738d8be4b78adU, 0x3e5283703e43c2f0U, 0xbe495ac43e2beebfU,
  0x3e27cce43dc1a076U, 0x3d7fa85d3e44359fU, 0xbdf031b7bd104e00U, 0x3d923420bd8475e1U,
  0xbb45c6493d57dd93U, 0xbe240f29be4bf5e2U, 0xbda95c9abde06746U, 0x3e4f82263e2fdab3U,
  0x3bcbdc7bbdb1d855U, 0xbd96d138bde065e0U, 0x3e675b6fbdfff1d7U, 0xbe16c67b3d88572fU,
  0xbde2a35cbd7a5777U, 0x3e2e1e783e3b694fU, 0x3e07931abd917ca7U, 0x3e50e8593d357003U,
  0x3d606eccbe815f1dU, 0x3e995d663d068777U, 0xbde006a23dde6464U, 0xbe2dadc4bddc0ed8U,
  0x3d961c883e0b4d07U, 0xbd113982bcd24ac7U, 0xbe8aef313ebb79c0U, 0xbe03bc7bbd8b388eU,
  0x3e4129fabcd97372U, 0xbdef048bbe6ebf56U, 0xbe8797a03e44e763U, 0xbd9e9b423ddf5a2eU,
  0x3d9c0feebcf871b0U, 0xbeba4749be151523U, 0x3dd5afeb3d1f9ddbU, 0xbe4799c6be5677d2U,
  0xbe4f2e83bcec8f2eU, 0x3d349bc5be405fd8U, 0xbcd6a1bfbd8fa6c9U, 0xbe3b33673db2c328U,
  0x3ddaca8f3e54cb02U, 0x3e6567433e605926U, 0xbe5d4f093e62cdebU, 0xbe2db5723df35d87U,
  0xbd7196e3bd0b2b36U, 0xbe365ccd3dfb2bc7U, 0xbe5b87663de8725eU, 0x3e395ddebabdf76eU,
  0x3e1b30ee3cc127d6U, 0x3d5b46a63d91888fU, 0x3d2e873d3daaf445U, 0xbc752f833c3bac8bU,
  0x3db4da2b3d6cd4a6U, 0xbd9939463db0a1cfU, 0xbd86022f3cbdeba7U, 0xbd4303933d406c3dU,
  0x3d60a2e9bd2d7d46U, 0x3d079e993d607245U, 0xbcffbf1cbd7b6c90U, 0x3d7818b1bd8a08d9U,
  0xbdb6fcbd3d6a9df8U, 0xbda422273d53d89bU, 0xbc763e873dbcad96U, 0xbd4ed56dbd464b43U,
  0xbcf514153c644658U, 0xbdad63b5bcc182a1U, 0xbd20ad23bdd26a27U, 0x3ddcfb33bcd3e6a7U,
  0x3da4fbb4bd4ed527U, 0x3d3ba958be050b36U, 0x3d8b361d3e118690U, 0x3c86da1f3e048188U,
  0x3d76a8473da41c0eU, 0xbd57e18c3df239f6U, 0xbc0b15d03c9c2447U, 0x3ca73e923cf56a0dU,
  0x3d9bf6d23dd68e88U, 0xbcb4669fbd14b7f4U, 0xbc82f74fbdd2ed87U, 0xbd9490f5be0c664cU,
  0xbe163e5f3d007fd6U, 0xbda4c72abd63b31eU, 0xbdd78983bce6e616U, 0x3d8a4d723d72b6ebU,
  0x3d7d204a3dbbf5bcU, 0x3ccc1580bd242819U, 0x3ca5df5e3cc27adfU, 0x3b5e50883dbd409eU,
  0x3bbfee5ebd8bba0aU, 0xbcb02a4ebdb02433U, 0xbd39f97bbd3c3dadU, 0x3cb352993dc06221U,
  0x3c890b433c91d064U, 0xbd7d675bbc9e1650U, 0x3d2781543d3f54c6U, 0xbd29d0f6bda40d0eU,
  0xbbd3df4fbd09e3e5U, 0xbdc67875bdd4d254U, 0x3d12b577bdc2ea19U, 0x3d3efb313d041320U,
  0x3c982a083d00f628U, 0xbcb98ccc3d8bc7b0U, 0x3d656211bc9598faU, 0xbd5175103c7bd18dU,
  0x3d93b692bdac9d53U, 0x3dbbff333db9ac74U, 0x3cf3398abcb73271U, 0xbcd0a09f3dd4b15eU,
  0xbd8710183d9583f4U, 0x3d611d7fbd306d67U, 0x3dc6e9883d6a2fbbU, 0x3dbe5e4d3bf22322U,
  0xbd827e7c3cc5c23dU, 0xbc21ced93c6feab6U, 0x3c7c2e4cbcbc0406U, 0x3dfd7836bd2381acU,
  0xbc6dff9bbd2754f8U, 0x3d3b3d95bc5dc027U, 0x3d5452f13dbca0bfU, 0x3cfded48bd69e9f0U,
  0x3d19244fbd5dc9a1U, 0xbd8cdf1fbd503237U, 0xbdb7b161390b512aU, 0x3c80e755bcbeea77U,
  0xbd1cd7d83d8bd948U, 0x3d314c6a3d2bcfefU, 0xbb935783bd5f14d3U, 0xbcdc2e02bdfefb04U,
  0xbc988e4fbde7c829U, 0x3da677a43d070fe2U, 0xbd8705adbdadfdb9U, 0xbd5e32e7bb58ff83U,
  0x3db569033dad2bf8U, 0xbdcfed203d0afbc7U, 0x3c13302fbdad8115U, 0xbdcbc0f33d7537f1U,
  0x3d0816f2bd84e63aU, 0xbda86e883d49ad56U, 0xbd5385f6ba9d2624U, 0xbdbd600a3dcbba23U,
  0xbda924dcbc6556f1U, 0xbdc66d503dd32de4U, 0x3d6a28d93d45239eU, 0xbbdaba79bdc7d034U,
  0x3d9e9432bd60f3abU, 0x3d3919e8bdce9bebU, 0x3d55daf1bc03ff6dU, 0xbcb0c4c7bd59fbebU,
  0xbda18889bd088c81U, 0xbd4ffdb83daf94e5U, 0xbd2710a4bdd5bf18U, 0xbbfcf0bfbd02edfbU,
  0x3db072693dba7d2cU, 0x3cdbe0e03d16b1a5U, 0xbb50ac9c3d5ec80bU, 0x3dd1191d3da268aaU,
  0x3c8232b03d37c412U, 0xbc9bda7abd49c233U, 0x3caa17293dc490bfU, 0xbdcd612b3d34789aU,
  0x3c8820eabd7ecf35U, 0xbdaac94b3d562167U, 0xbdcfce15bd5977a7U, 0x3de3c54f3d8c3259U,
  0xbd9a4ad03d8b7cb2U, 0xbcd89dabbd254185U, 0xbd7626e7bc12ca1eU, 0x3a006a33bbc275dfU,
  0x3c84da533d5ac149U, 0xbd17485f3c03b453U, 0xbad0c6f33bc67451U, 0xbd3a93bfbac70608U,
  0xbd4522a9bd850a21U, 0xbd3093433d08455cU, 0x3c0e9dcd3b577898U, 0x3c45aef53d16557dU,
  0xbde36015bd375813U, 0xbd13560b3d9ad873U, 0x3d022ad9bcf57f5eU, 0x3dba9fa13dbd82deU,
  0xbd9b0615bd816f06U, 0x3dcb0bf4bd8b53eeU, 0xbd8ebce0bdad7489U, 0x3dbfac0fbd4ef15cU,
  0x3c45cddabcf124b0U, 0xbc47426dbc8a66beU, 0xbd780b2cbda91342U, 0x3c9d426a3cfda6cfU,
  0x3d88ebaebc0d21dbU, 0x3dbdf21bbd808419U, 0xbdd2ddd23d86dc37U, 0xbdd47f28bd9fb692U,
  0xbd7d93043d1346b3U, 0x3d2785353d8c212dU, 0xbd5d76ed3dc22766U, 0xbdd77e833d7ca8b7U,
  0xbd513d4ebdcdd9a8U, 0xbe061d823d60f1daU, 0x3e10e2d4bdd96b6cU, 0x3d08b95c3e0996ffU,
  0xbd8794debcf1c81dU, 0xbdaf8515bd7f7c9eU, 0x3e0c0143bca9a20bU, 0xbdaa49bdbc9adca5U,
  0xbcaf127d3c50d7ddU, 0x3d172643be095727U, 0x3db99e35be117506U, 0xbd1eb01bbc98acf7U,
  0x3b0160e83e0c6dbeU, 0x3e022ac13d789111U, 0xbd0838e63cc16b59U, 0x3d4c482abd3a2d57U,
  0xbded5282bd826356U, 0x3dbe8b393ddb5671U, 0xbd9616153d44a460U, 0x3ddd62e73e2143c1U,
  0x3d938f343d18db90U, 0x3cac57df3e3eba26U, 0x3da871eabdee4fa9U, 0x3e203fb2bb051aeeU,
  0x3cb67cadbc5b9144U, 0x3c460bde3d96bfadU, 0xbdf09449bdcec360U, 0xbbdc94133dc0bc51U,
  0x3ca560db3d5a5b76U, 0xbe1d56303d7d71d0U, 0x3dcc2d93bd8f5843U, 0xbd9f423bb9a58cfdU,
  0x3c7e85d33d7d8b29U, 0xbb0860bdbe08027fU, 0x3ba84eb9bdd1c45aU, 0x3cfacf8a3e00d1c9U,
  0x3d523e813d92c853U, 0xbdd05357bd1dd1a1U, 0x3dc9fc08be08b6c3U, 0xbdbd61d9bd87974bU,
  0xbdb08270bd9bd40fU, 0x3d7f5b823dd7ae6fU, 0x3da9b47c3e07316dU, 0x3d963eefbe11f6eaU,
  0x3ccade3cbdda2782U, 0xbd242920bda264c8U, 0xbde43a29bdda037cU, 0xbdf622463dd15226U,
  0x3d6d57a33da9e846U, 0x3da7d3cabd998b18U, 0xbce3f4b2bbf40d44U, 0x3d9595cdbe01821fU,
  0xbdd22940bddaf4fcU, 0x3dc1e5c1bda20fb1U, 0x3e01e4813d54c3b8U, 0xbd05871cbdc20084U,
  0x3df82bd93c2e773cU, 0x3e04bdc13df2aadcU, 0x3dc991503dec458cU, 0xbe11f8a8be0c6a55U,
  0x3e11e8aa3e0ef0beU, 0x3cc8efd53dfbe891U, 0x3d9a3e743db1d77eU, 0xbe3f5e693e1e2987U,
  0x3db46f493e4ebb83U, 0x3cc97a0c3cfec6f4U, 0x3cd2e588bd539686U, 0xbcbbd348be782842U,
  0xbdfbe19f3db58f90U, 0xbd33b39b3d0457cdU, 0xbe203853be2ec241U, 0xbe2501733d5c12afU,
  0x3d9c8e38bdec3974U, 0x3d061993be0e66b6U, 0x3d82f0963d11ae0eU, 0xbd7016d23dd416bcU,
  0xbe95b2393d937af2U, 0xbdd45d093bc2d6beU, 0xbe61c1173d7b831eU, 0x3b846625bd977d69U,
  0xbcc8953fbc8c8d59U, 0x3d84fc9fbdc59d45U, 0xbe08105c3de04685U, 0x3dd40ff23d6b3109U,
  0xbd399099bc774adbU, 0x3dd82c0cbddfdb59U, 0xbd15d14ebdc3a188U, 0x3d2d70b6bd504d6eU,
  0xbdf48990bcabdcf3U, 0x3dc7d7dc3dffa09fU, 0xbde86dd1bd221696U, 0xbdba244f3d18a9d9U,
  0xbd64e425bdf6472eU, 0xbd6d57f8bde4defbU, 0x3d66b2533d0ab2edU, 0xbcd34948bdb5e2b8U,
  0xbb6e45cdbc212060U, 0xbdfbcd7c3d62dc6aU, 0x3cd5283abdc10e64U, 0x3e07cfcebdc0b84dU,
  0x3e0c06ad3d396ea1U, 0xbc800ca93e0dbb7eU, 0x3bc6fe2ebd35dc26U, 0x3d0523213e10f1daU,
  0x3e093591bd7e686aU, 0x3d736c823bcb3e22U, 0xbdc25a2dbd99dbafU, 0x3c3513b93da54c7eU,
  0xbc8d731fbce89cd0U, 0xbcc4861b3c714accU, 0xbd893663be0df99bU, 0xbe06d14b3de3bbb9U,
  0xbd2de6503dd012c9U, 0xbd29e9ec3e5435cdU, 0x3ddd86fa3cc0f294U, 0xbd5b9170bdae5711U,
  0xbca8253f3d229f69U, 0x3e82bec0bdfdc687U, 0x3cf63a683d90e638U, 0xbdc667ddbd44fc07U,
  0x3b16991fbe0fe4a5U, 0xbd053c2e3d69e4a0U, 0x3e4124e73db5e2c2U, 0x3ceb90f73c4ea2cfU,
  0x3b968c913e0041d9U, 0xbcedd9ec3c279513U, 0x3c87141abd3e3dc3U, 0x3dbdeb843db4f325U,
  0x3de15e13bdddbab1U, 0x3ddd6c7fbbd9b0a6U, 0xb98d084b3e0710f9U, 0xbc291e38bd97b2beU,
  0x3b7d796ebd9225c6U, 0x3c7a76973deb6946U, 0x3ca1e4413da729f9U, 0x3bf56668bdfc3179U,
  0x3d8ca0fd3ccb1e63U, 0x3daa133ebddaca23U, 0x3e0e754bbd8ea119U, 0x3cb2e90f3d8ca092U,
  0xbe0a60513de635adU, 0x3d1cead7bd5e820bU, 0x3deee47bbd62ab33U, 0xbdeade943d0dc643U,
  0xbdcc506fbe0d9789U, 0x3c25340cbd1cb0c8U, 0xbc8ffa56bca500cfU, 0xbdf3884dbdf35b8eU,
  0x3df5fabcbdf99e61U, 0xbd03388cbccc1fe8U, 0xbd56a5603dc3178eU, 0xbd2c488a3dcc8323U,
  0x3dbb9a44bdf688d8U, 0xbdfdc1e03decf888U, 0xbd6b3f88bda96277U, 0xbd906c9fbdb21973U,
  0x3da6ce3cbd885736U, 0x3dc50030bd0f949eU, 0xbe04c658bda8d228U, 0xbd7c597cbd85fc4fU,
  0xbdabc2b0bdc9cf6eU, 0xbd9af6883d7a58c0U, 0x3e0a22b13d8c86a4U, 0x3e1811bd3da69c21U,
  0x3e15f1b43d505c52U, 0xbc59bc113d90bdc7U, 0x3e311710bd41575eU, 0x3def838abe3dac1bU,
  0xbe8e6c8b3d93b1a2U, 0xbe142c823e11b88dU, 0xbc58adc83d8bf659U, 0x3da51d03bc50087fU,
  0x3c95f20abd6b385bU, 0xbcbdeaa63bc719deU, 0xbc342f843a684a30U, 0xbcbabb143cafb80aU,
  0xbcbbda013dc45b9bU, 0xbdb8d453bdeb58feU, 0xbe12d65cbc230b06U, 0x3ca517adbe08bd3aU,
  0xbde2b81f3dd0d945U, 0x3dd37be23d2eeb8aU, 0x3ca69d193e07a1f6U, 0x3da089eabd9b5934U,
  0x3cc623aa3d964651U, 0x3dd4ccd3be061fb5U, 0x3d3c43693cc426c3U, 0x3df229dd3e0c3a10U,
  0xbd5242db3df1a273U, 0xbd414a303b7bc16aU, 0xbd7c0505bdbc74efU, 0xbbe789593d263b97U,
  0x3d732fddbe0d7e86U, 0xbd78157e3cd2de42U, 0x3ccb9edfbd92f445U, 0xbd6905ca3de09f38U,
  0xbdd88b1e3e023f93U, 0x3d8b53333d375841U, 0xbdd41ee03d8ca607U, 0xbd65bf8dbc89ab50U,
  0xbdb34682bdb19275U, 0xbd8bf7e63de2cd3fU, 0xbc4fce9b3da43ea7U, 0x3d0617c53d928430U,
  0x3dc1a8f83d7cd7a2U, 0xbd57a0c7bd5b4372U, 0x3dfd6136bcec1966U, 0xbe2b07213dd836d4U,
  0x3d77781f3cbb1cbdU, 0xbc2d28af3dfdbc51U, 0xbd6e3fdcbe411516U, 0x388dd809bcf88c0fU,
  0xbe04c9bf3d4674d3U, 0x3db67308be0f0bbcU, 0x3c8674debe8ef21dU, 0x3ad4c75e3d25f56cU,
  0xbdf10c63bd9eff39U, 0x3dd1214abe2facdeU, 0x3b9af01d3d6ce93aU, 0xbd0bce893e75b1bdU,
  0xbe8a005c3e7812eaU, 0x3bf62f71be14064aU, 0xbe1613cdbc3ec275U, 0xbe10ed9d3dd8ba62U,
  0x3e13eaf23e0f3576U, 0xbc24d931bd94a83cU, 0xbdbb762bbe0117dbU, 0x3e07553bbe020e3aU,
  0x3e1014ebbcfaca21U, 0xbcdae85c3d94f4c2U, 0x3d81d7e63e158f52U, 0x3c9c8dec3d7257e5U,
  0xbc8dade0be0c9cfcU, 0x3c70de5ebde5607eU, 0x3e13986ebd98396bU, 0x3ddb18febe0901f0U,
  0xbd2333c6bddf2d5eU, 0xbd2cbbee3da46688U, 0x3d8525d53d7ad560U, 0x3e017555bc6da8c2U,
  0xbd8a325b3c88de03U, 0x3c1c33bfbe12b237U, 0xbc80ac12bdcc4b87U, 0xbc3c51efbd529cdeU,
  0xbdb2726f3dfd0ce2U, 0x3d422b6e3d8f86d2U, 0x3dbcf9043e05e949U, 0xbe10f826bd3d8c84U,
  0xbd787d06bd25c00aU, 0xbe049d263c34310cU, 0x3ce47c763de453d1U, 0xbdfd37fe3d866388U,
  0xbcd96cb83d801583U, 0x3c0092aabcdad6f4U, 0xbdb4c81abdeb3a80U, 0x3c46bbb73e14de5fU,
  0xbd9224743c40796bU, 0x3d171e4a3dc7af73U, 0x3b6a5720be33ce8fU, 0xbc123168be52aa82U,
  0x3e562001bd8cb822U, 0x3e4d9f67bd54cb96U, 0x3e0bfdbebe031f9eU, 0xbe4443523bff7c8eU,
  0x3e1a286abe08c77aU, 0xbae04bd23dab1cdeU, 0x3db70e6bbdddcc3fU, 0xbd8e03fc3dbf524cU,
  0x3db4f87d3d240f35U, 0xbde61add3cdfb1cbU, 0x3c50cb3a3cabcebfU, 0x3b972feb3d0853cbU,
  0xbd6c1a51bd67be67U, 0xbdd802a1bd5664b6U, 0xbd0690a53dc346fcU, 0xbd974515bcbb4d38U,
  0x3dbb32753cb6496aU, 0xbd876004bd520188U, 0x3d9ea9c3bdd3e128U, 0xbdf7dad3bcd1e7bbU,
  0xbc1964b6be15eacbU, 0x3cc81bddbd918e2eU, 0xbc857b203aa63646U, 0xbd8ae1bf3dff1884U,
  0x3dc135743e13b612U, 0xbd8678a73d9e24d7U, 0xbdd2a346bcecd5a5U, 0x3b67fad93d9eb0faU,
  0x3ddd97133d94d2d7U, 0xbe05dc3bbacc817eU, 0x3d41cd183d85f360U, 0xbd8883123dd93fc0U,
  0xbd810d71bd102457U, 0x3d7c85d2bdc0c1c0U, 0xbce687643e08540bU, 0x3daab4ae3b0dc9e1U,
  0xbdb02cb4bdd29c98U, 0xbd76e72dbdb402bdU, 0xbd3a764f3d9a1316U, 0x3db556d13bd659edU,
  0xbe025d893d651b4eU, 0xbdf4eb9bbd8e0460U, 0x3c2fc999bd716cb7U, 0xbd9cb237be15ae72U,
  0x3e0d6c17bcd55829U, 0x3e83559abe3e8412U, 0x3ddf291ebdb569e7U, 0x3d52dccf3e2df403U,
  0xbdba7846bd5c0808U, 0xbe303fcf3e10ee91U, 0xbc8c34c3be17782fU, 0xbb982f44bdaf3eedU,
  0xbe4f765dbd3b793bU, 0xbddd13f93e1807f7U, 0xbe0f729cbd4c69e7U, 0xbd8290b13d65a697U,
  0x3cf5b2c0bd07ca71U, 0xbc0e2e86bd30b5ecU, 0x3dd717aebdb8748fU, 0x3d03f4ca3de3167dU,
  0x3d3abdaebdca6da3U, 0x3d2338c4bdb45f23U, 0xbe05a8043db4e282U, 0x3da5b4573dd6187dU,
  0xbe04fce4bdd582d7U, 0x3ddf3357bd724858U, 0xbd045d213d99a2dbU, 0x3e0893e63d89eaf0U,
  0x3daac0acbe06a531U, 0x3e0202c93d9de70fU, 0x3df7678cbd45b1b1U, 0x3e0194fdbdc4738bU,
  0x3a85bb773cfd46daU, 0x3e0a3ad9bd646706U, 0xbcc165863dd8eaa3U, 0xbb7e119e3e034d2bU,
  0xbdfb29da3e02a526U, 0xbda284523b5ed154U, 0x3def4e21bd91bfb9U, 0x3d3de9f63dc2ee93U,
  0x3d02e039bdf4731bU, 0x3d8ce770bcf7dc7eU, 0xbdbc9db33d2a9436U, 0xbd49a8363cd58928U,
  0x3d83874ebdfd8496U, 0x3dce5073bd689839U, 0x3d2246c6bd6d559dU, 0x3ce12582bd1c6218U,
  0x3dc0c5c2bbe08dafU, 0x3d9a2f07bd48d76dU, 0x3d41799f3de66b06U, 0xba2f5291be1c0b9cU,
  0x3d8bfa1e3c0c65e1U, 0x3c50144bbd1bf684U, 0xbd682aef3e2e7f53U, 0xbb9fb7cf3d98df50U,
  0x3dc0fec43d6830eaU, 0xbc204467bd9ede61U, 0x3deda5003e5bb302U, 0xbc31a252be2ce27bU,
  0x3d749678bce125c9U, 0x3e1cc784be427673U, 0x3df47d433da632dcU, 0xbd53eacebd0b4232U,
  0x3da442f3be3b76f7U, 0xbc86b53dbd4a8034U, 0x3d6ce8b1bdaddbaaU, 0x3d7262763d88eeebU,
  0xbdcc6277bd35092bU, 0x3d9449693e0beebcU, 0x3d5fba403ca5efeaU, 0xbc5c6e4ebd0d5afeU,
  0x3daf97c73dc2c4b8U, 0xbdf60c7fbdeb771eU, 0x3e080dfe3dfd2e56U, 0xbd8d0c003dbc2b36U,
  0xbcf81d303d6c6198U, 0xbdb04699bdb914cdU, 0xbbacad263da43128U, 0x3e0b79853d6fdeb6U,
  0xbd510ce0bdeefe62U, 0xbd0097db3d4f8ce5U, 0x3de16b37bdd52f88U, 0xbd9d3d2ebdb2b907U,
  0x3d53fb4f3d1f8d18U, 0xbdbf2c813c2e32fcU, 0x3d3bc2e9bd5a9d67U, 0x3d58b2b4bd7969a9U,
  0xbda750a2bdaeb8a2U, 0x3d7e86ffbbf5a41cU, 0xbe068a6fbd2132d1U, 0x3da5157bbccb9017U,
  0x3d29375fbcd0193cU, 0x3dc2e88e3d310963U, 0x3e057f29bd5402beU, 0x3b714e66bd3e2afeU,
  0x3dc60549bd94d1a8U, 0x3d92c6e53d9cd588U, 0x3d3a7511bdd37129U, 0x3d63b2123d3dacb4U,
  0x3d8c99573dea5d08U, 0xbcf7a3e33c659cbcU, 0x3e6916763b74411bU, 0x3dba348b3d88ab02U,
  0xbd183702bd56c054U, 0xbe252fa83e44e933U, 0xbbe48b833dc2722cU, 0x3e3db0343ccb3822U,
  0xbbfc3b7b3d8f5eceU, 0x3dd12e193d86c011U, 0x3bc4b0fe3e24adbbU, 0x3c554d983dc99ed6U,
  0xbc07a3d5be1d0241U, 0xbc6e4977bdbfb0c8U, 0x3c0b442f3c7bac24U, 0x3cb61c6fbd72f4d1U,
  0xbcb4157c3dcc8eb0U, 0xbd5d5a633ddb6919U, 0x3e05bae9be058aa5U, 0x3d2dc07b3d6bdabbU,
  0xbdac7b98bdd4863cU, 0xbcea4b2a3c97c29eU, 0x3d2111d23e094fd6U, 0x3dae73a03e02f567U,
  0x3df597423db40ba6U, 0x3d949ad3bd3d3da6U, 0xbd0cacdd3de053d8U, 0xbdb48b7abc942508U,
  0xbd8bd12d3cf4e34aU, 0xbc3a8fff3dce26a4U, 0xbddbca583da50a7bU, 0xbd8baffe3df670f9U,
  0x3cdcc1bd3c834147U, 0x3d2c092b3d1ad393U, 0x3e19923bbd501346U, 0xbd487e7e3d2f0c6cU,
  0xbe44e127bd0a7dcbU, 0x3e2a1b8e3d7248d2U, 0x3dd33dfd3e339de3U, 0x3d744f273d1f7038U,
  0x3df786d4bd0cf3f4U, 0x3d8c9df3bd936e0aU, 0x3d562d18bd11ff6aU, 0x3e228ca0bdd470a1U,
  0x3dd5866b3e46af48U, 0x3d77d20cbdcea643U, 0xbdee37443dc6e62aU, 0xbd6fa41dbe9c6216U,
  0x3d90f60c3e036f2dU, 0x3d8b9c80bd0fe2a1U, 0xbd35f760be219187U, 0x3e0f96eb3ea45736U,
  0xbe25b350bde1a448U, 0xbe352ef5bdb984e2U, 0x3d3ab13fbd9f5dfdU, 0xbdc2d2f6bde34852U,
  0xbde13c3fbe1650e1U, 0xbc41108ebdd59ef5U, 0x3df35606be76f957U, 0x3ddcb2a03c91f1f5U,
  0x3e2d42e4bc4a0d8bU, 0x3dde36ef3dcec97dU, 0x3e1178e1be56ac4bU, 0x3e1c891f3bd4a68aU,
  0x3d14cc4d3dc1d7e2U, 0xbe1f3c783dba9a9eU, 0xbe49ecc8be23a8f5U, 0x3e0bf72abd1dd366U,
  0x3cd0d9183d0aeb25U, 0xbe2439f63e0672e4U, 0x3de680bebdaf670aU, 0x3cfe6c613e2f2134U,
  0xbc6801bfbc0189ecU, 0x3df8bd4cbd9d2a19U, 0xbd17792bbe01f1a4U, 0x3db101b6be1ded88U,
  0xbc8235653bbfda80U, 0x3dd301ccbe410095U, 0x3e1e813f3d0adcecU, 0xbdd15c94bd5f2834U,
  0xbdf0c45b3d27f484U, 0x3d23053bbe3c601fU, 0x3ccfcdd3be2dacebU, 0x3e3e61313e0a5b2aU,
  0x3e2799e3bdd282f4U, 0x3e351ff83c950024U, 0xbd977336bc0326f3U, 0xbe320100be03adc2U,
  0xbdd8696d3df88fe5U, 0x3d62d6373d136c33U, 0xbce493573d6c7496U, 0xbe21b9413e073afeU,
  0xbcad5cdfbd38e2a1U, 0x3d9002733db8ad22U, 0xbd087f1d3e4015a5U, 0xbda2055dbd80227aU,
  0x3bc174e2baf10755U, 0x3da0ada43db3e9ceU, 0xbd809349be010005U, 0xbe3d28a23e9f31b9U,
  0xbdb8baff3e1f7937U, 0xbe1d54fabded1929U, 0x3dc36d783e027c77U, 0xbd88fdc63d399289U,
  0x3d0fdee7be28c5e2U, 0x3e22ce7e3d3f3609U, 0xbd12c8933e071934U, 0x3e179832be1ef685U,
  0x3e8138d1be57d0b3U, 0xbd350ebfbe284c13U, 0x3e7c0702be855d37U, 0x3e2a77a3bc513f46U,
  0xbbaf76693c796b4cU, 0xbe3c673abdab9644U, 0x3dd109ba3de3cbefU, 0x3d416bc3bdfe32dcU,
  0xbe0b65d8bdb497bfU, 0x3d3e1c7d3e471b0aU, 0x3d43398e3d6322aeU, 0x3d1721b93db43b0bU,
  0x3e2475793df70f0bU, 0x3d8d1326be0218acU, 0x3c605701bd7559a7U, 0xbe32ca923df0ce09U,
  0xbe3c1ce5bd8fdf37U, 0xbe3bc6163dc558f8U, 0x3c29228d3e061345U, 0x3d1573c3be22dc7fU,
  0x3e2ba56cbe2b2695U, 0x3dd2f9583e249cd3U, 0x3cadbf6ebe053132U, 0xbe182901bce20fccU,
  0xbd4feb9b3da59ad7U, 0xbe336712bd301182U, 0xbe1378aebe267590U, 0x3d58767fbd951f2fU,
  0xbdb77ec63e264182U, 0xbd5e06313e1ad58cU, 0xbd26d831bdc84581U, 0xbe09bb333e2013f5U,
  0xbe32b2263d9884b1U, 0xbd21bd1b3e2ff78eU, 0x3e39aeb33dd87e07U, 0x3dc05dd33d84eb2fU,
  0xbd4a95f5bd200976U, 0x3de71ec2bd038a8aU, 0x3e78e7943e73ce2bU, 0x3de162f43e4ff095U,
  0xbdbfc2483c752febU, 0xbe5ee4293aba041fU, 0x3d047cd43dae347bU, 0x3d83e3c63d90ad51U,
  0xbd4531283e1afea2U, 0x3d9c1ea2bd64ccddU, 0xbe7cab7d3db19ceaU, 0xbda38bfbbd951b19U,
  0x3dcd13f53d5d3062U, 0x3dccf3c83d5458d6U, 0x3ea378203e0c7502U, 0x3d4cef7d3b99b9d0U,
  0x3e40719f3ae16329U, 0x3b603e48be13af7fU, 0xbd87c7c0be0dae5dU, 0x3ac0e3edbe2f20a8U,
  0x3e08647e3deb5bd4U, 0xbb607231bdae9cebU, 0xbd2a2add3e093f7bU, 0x3e411d213c6f7af7U,
  0xbc28e41f3d83755eU, 0xbde43666be3acec6U, 0xbe45d366bd985512U, 0x3d85e35bbdf409bcU,
  0xbddb38d0be01cd0aU, 0x3c8ef4b73e4ad81aU, 0x3db86246bcf4ed5cU, 0x3d716218bbf0d3efU,
  0x3d63691f3dd831edU, 0xbd79e75e3e2e3486U, 0x3e33a0373d375535U, 0x3e16774a3d412719U,
  0xbcf346703d689392U, 0x3c8f33003e173eaeU, 0x3e0b2975bc533689U, 0xbe2738533dedde38U,
  0xbd8d0d15bd92ed2bU, 0xbe1f25e4bc7b9df2U, 0x3e08c13b3decaed0U, 0xbd694ad6be0b4740U,
  0x3da4016c3e2e9befU, 0x3e291616be0ce632U, 0x3ddf83913c85d083U, 0xbe0fc15dbe224d3eU,
  0xbc6d0d9dbe557290U, 0x3e823c3c3d099dd0U, 0xbdb3196d3d577f12U, 0x3e370074bb00e524U,
  0x3dbcf3c8be0459dcU, 0xbd2dfd763e161060U, 0xbcc00e8d3d04846dU, 0x3d4c3a6f3d953b58U,
  0x3dfe31433d6b985cU, 0x3d92970f3c12419eU, 0xbcff1b96bbe55315U, 0x3e5b16033dd656f6U,
  0xbd491e763d0af9bdU, 0xbd98b1febe26caa3U, 0xbe39bf9ebddf4681U, 0xbdb9a008bd394244U,
  0xbc5b27eabddba9afU, 0xbdcc9d2fbe24b1e8U, 0x3db81f9dbdafa808U, 0xbdfad5323cce2edbU,
  0xbcec92a3b78ca2ebU, 0xbd92924fbc95331eU, 0xbdddc419bd6c5df5U, 0x3e07285bbdef4a7aU,
  0xbd3fe2e73da23920U, 0x3d35273fbe2bfcf1U, 0x3da48f6bbe02c2fdU, 0xbdd0ec983dba7e10U,
  0x3e2f14a23cdfdf43U, 0x3cd8bbc6be12207bU, 0xbdf20b0f3d0d29a5U, 0x3df7b3943d3cab45U,
  0x3cdd3f5a3c8eab76U, 0x3cbaa75cbe0d3e77U, 0x3e317d193e1ab071U, 0xbc803910bd4a6a55U,
  0x3db99186bc5f61f2U, 0xbdb46fe5bd11c1c9U, 0x3de9ca9bbc77959bU, 0x3e17759d3e232eeeU,
  0x3d9582453dd5f10bU, 0x3c95f3dc3ccb605bU, 0xbd9bec8dbd8108ceU, 0xbc8ba4643e013872U,
  0xbe322924bbbc9c3dU, 0xbe1342633dec1489U, 0xbdeb9ebfbdfcbf64U, 0x3dede39d3c9bf74fU,
  0x3d9fabe43dbc9582U, 0xbdd52ac4bc92f06aU, 0xbe1f7769be4bbe04U, 0x3dc9696bbbdb1802U,
  0xbb5bba1cbb51f360U, 0x3e2056e43e23d6b1U, 0x3cfe3449be14f2fbU, 0x3db1be343e6089dcU,
  0x3caad9ad3e1b87e8U, 0xbdab52c5bdfceda1U, 0xbdd07f6e3e057843U, 0xbe19378f3de77f8cU,
  0xbe30db2dbd870713U, 0xbd09254ebd0ef984U, 0xbe224dca3e330bedU, 0x3d208bd4bdf788efU,
  0x3c5733f5be08f96eU, 0xbdce6fb3be12822dU, 0xbd4a9cfabdfc8816U, 0x3d68bc3bbddb7db5U,
  0x3e15d858bd9c2d07U, 0x3e2ec02e3ddf5e16U, 0x3e10c204bc71cd9bU, 0x3d20a154bd899d5dU,
  0x3d44c97d3dd9476aU, 0x3df276173d60decdU, 0x3dc74201be1647baU, 0xbd7b7eb63d390d26U,
  0xbcb8e4e53ddb2c8fU, 0xbd7f6065be345ce4U, 0x3b52b909be020f14U, 0xbd2406473d918873U,
  0x3ddcb85e3ddd66edU, 0x3d3e987ebe3378ffU, 0xbe24df8c3dff53aaU, 0x3dbe905a3e171abfU,
  0xbd900c79bdac1fd8U, 0x3d1163fa3e04db06U, 0x3e1c16f1bd1ca3a2U, 0x3d52e8b2b9bb337bU,
  0x3dcd4870bd941972U, 0xbd3e319c3e1ba6c8U, 0x3d911970ba986f96U, 0xbd78404c3d660366U,
  0xbdd15f8bbdca0f23U, 0x3ceac34c3d031177U, 0xbcae6ca9bcae879eU, 0x3de47b7c3d2981edU,
  0xbc6b102e3df5817cU, 0x3d3b06143e1d7131U, 0xbd19f3d13c3420b6U, 0x3d6ee705bdddaaeaU,
  0xbd91c59fbd18bb65U, 0xbdc70f21bdd661e9U, 0x3e5c58b7bdf81780U, 0xbdcf65183d994977U,
  0x3d2d624ebe0c1ea1U, 0x3dea7249bd9ea794U, 0x3dff78a53dc681e9U, 0xbd81d3653cc3a280U,
  0x3e27e0243e1b76b1U, 0x3e48cc94be0d6069U, 0xbce787893e2acbe8U, 0x3e2d3bc3bd147672U,
  0x3dda41ccbdbca3d4U, 0xbe27d6643d3e18fdU, 0xbdc050c33cf33bc3U, 0xbbf12bbe3daef18cU,
  0xbdb641ffbe1c73e7U, 0xbe2d92d3be2cad1fU, 0xbe0801ebbe1cb25eU, 0x3d0a9e2d3d83a107U,
  0x3dd2fa9bbe21d1ddU, 0x3e1eda7f3be53f5aU, 0xbbe85711be22ff4cU, 0x3dfe060b3d42fa2aU,
  0x3e2656b9bd5cd864U, 0xbde73b6e3e0eaf5aU, 0x3da8c4903d0aa0f3U, 0x3d5c34073df3bbdbU,
  0x3df5837abc5ceb5fU, 0x3dc5d35abe006962U, 0xbdbfa16e3e0f0bd8U, 0x3e34fedebdd3fc2eU,
  0xbac62a5d3d958e84U, 0xbd5e82c83e0ca77fU, 0xbe369c593ce6b9b8U, 0xbba2bc593c9dd481U,
  0xbe36f1c43e304502U, 0xbd34447fbe276771U, 0xbe3a38f1bdb14932U, 0x3d6ed92bbe2fdeaeU,
  0xbdf308e93e302e18U, 0xbda0cd9f3e26070bU, 0xbddea9853d4c7b8eU, 0x3e0ce611be495678U,
  0x3bd85bdebe098594U, 0x3e2dbefebe8d56b6U, 0x3e3e41a53e22e16bU, 0xbd45749b3e413402U,
  0xbcb487663e2d5c3eU, 0xbcf1dbd8bd16ef9bU, 0x3be5b1fe3e2a7a9eU, 0x3e1fac7cbe6c5f46U,
  0xbdba57c23d8413d6U, 0x3dc89255be84048fU, 0xbd39aae43d67b7ebU, 0x3df59ccabe25b617U,
  0xbc87c0dfbe179bb1U, 0xbdba3c9abd6ea35aU, 0xbb86de60bdbdafeeU, 0xbde18ca1bd1ba253U,
  0x3d03a3163e2ea682U, 0xbda1ea1f3e32b715U, 0x3e362c9e3dd335feU, 0xbd6c73d33bb23f13U,
  0x3be98e093e1697a8U, 0xbb52d4d13cbceacaU, 0xbcc9473cbde26872U, 0x3e21df343d9cded4U,
  0x3d2117b5bde581bfU, 0x3cf791edbe1aabcfU, 0xbd44dc3dbd89fe67U, 0x3db4a8de3db50fe2U,
  0xbdb613fbbcb20950U, 0xbdec69c4bd7e6be7U, 0x3c07d0bb3d262a37U, 0x3bded31dbe3546e7U,
  0x3e27d0a03aac9423U, 0x3e3627f83e176793U, 0x3dea673a3e0e16e6U, 0xbcf013f9bd714beeU,
  0xbddf6fc3bcd3ef2dU, 0x3e2e123fbc93509fU, 0x3d94abe5bb4c51d7U, 0xbdd10491be1abebbU,
  0x3e115e333e2e1875U, 0x3da49cbbbdee7a53U, 0x3da4d2a63e0ec181U, 0xbd0e5dab3d63ecc6U,
  0x3d7e29f03ddbe641U, 0x3e1c4cd13e04bc97U, 0x3d87e8a73dea7806U, 0x3e3b9e76be1b73ecU,
  0x3ded2ef63e11ca7dU, 0xbca7afdabe0c4b9fU, 0x3e31f6b33d336713U, 0x3e19a356bd1ca6f1U,
  0xbc41a3753d01f426U, 0xbe071eb83d4d2b2dU, 0xbd2f7cd23e1ed6eeU, 0x3e26a78d3ba36938U,
  0xbebb182abe47938bU, 0xbdefb7b5be1b6010U, 0xbcf5e119be1fb8b8U, 0x3dbce0a1bd49fbabU,
  0x3e4caef03bc3894eU, 0x3e1ed0713d20f0e7U, 0xbd3acf833d252a85U, 0xbe0fa8173e0b5456U,
  0x3cf21a893dd26ed0U, 0xbd3e67693e241426U, 0x3d56a8f0be043b5eU, 0x3cfc2e89be365771U,
  0x3dd3c7553d1f4743U, 0xbbe39e68bdcb1784U, 0xbe068caa3d0f8f86U, 0x3dd4c97d3cb7d45aU,
  0x3e1b30533c15501bU, 0x3e2c4c4e3d7a0e63U, 0xbd768d76bdf3ac9aU, 0xbdb5cfb93c72ca2fU,
  0xbde5790e3cf9990cU, 0x3cc4189d3c5eb6f0U, 0xbdfd112dbd0895f2U, 0x3d346f0e3c062773U,
  0x3c5245753d3463a2U, 0x3e26fa823d4e697fU, 0x3e105ad3be05b7f9U, 0xbcb6d3fc3e0ea070U,
  0x3e2555e6bd255245U, 0xbe058867bd4167dfU, 0xbd4149ec3cea76e7U, 0x3e103d3c3db2e126U,
  0xbd151177bd73b2b9U, 0x3e016747bcd62872U, 0xbdfe39e5bc904a70U, 0xbcfe5d6dbe2a9c7eU,
  0xbcfe12f8bc80f052U, 0xbdb37cdebce08785U, 0xbdf90a033cba988eU, 0x3b35b525bdfb5a13U,
  0xbd8de2b4bd2dcc62U, 0xbd0908053c3d9071U, 0x3e207845bca1d209U, 0x3c8a0ff23c85b312U,
  0x3d87c8cebbb7e6a8U, 0x3cc344213e1e82f4U, 0x3e27803ebcc1f92dU, 0x3df5d1833dd78c86U,
  0x3c0a6cb5bdcd975eU, 0xbcc1f521bd9e62e6U, 0xbcaccc5c3d8148f2U, 0x3e1ff2c3bc48ea26U,
  0x3c61d77bbd3fffeaU, 0xbe1498abbdf5e87dU, 0x3e3044653e688e85U, 0x3dbd32543e14412eU,
  0x3e2ca7673e236025U, 0xbe0ba84fbe265a30U, 0xbd8e3c08bc7321c2U, 0xbd72a232bcce6a22U,
  0x3e2bed9e3d31a5fdU, 0x3c7b75b9be055831U, 0x3df1b92cbe192191U, 0x3d3d452fbbe2c0a2U,
  0x3e19c1263d8d9738U, 0x3d528ad4bda411f5U, 0x3d5326d43d900548U, 0xbda5215a3e2778dbU,
  0xbd329caa3d2350e2U, 0x3de1a756bdb01c08U, 0x3e1614ddbd1dfdf8U, 0xbd829aa93d49549cU,
  0x3e019975bd03f804U, 0x3e14fa1ebdc08914U, 0xbce33fc9bd092c94U, 0xbe1c15a5bdfaaaebU,
  0xbd8f0fcd3af3ccfaU, 0xbe27fd5c3d684d16U, 0x3df6df1cbd9c05bbU, 0xbdc3134b3ce5656fU,
  0x3dbe875a3e0370fdU, 0xbe0beb1d3d2c9d18U, 0x3dd9a9503e1fd66eU, 0x3da734b9bc348f42U,
  0x3dc78fd1be1db26bU, 0xbe2f7ddd3e2b1126U, 0xbc00ef173dd67e77U, 0x3cd752693d9db14bU,
  0xbcf1f0babd164dc4U, 0xbe7ef54c3dc056e7U, 0xbd8c1d20bd821720U, 0x3df9e99bbe80b805U,
  0x3cdd0edb3be5a549U, 0x3e92cc84bdbdb868U, 0x3e3e1333bd98b1b8U, 0xbd954a993e66220cU,
  0xbcc29553bd96a8ceU, 0x3cc5c39abdc531c0U, 0x3e0fb6963d900259U, 0x3e34b8373cfb410cU,
  0xbe1c51393d2cbdb9U, 0x3c99dcb63d5a26a7U, 0xbdfab63c3e6ddeadU, 0xbd9bbe033d919083U,
  0x3dfce0293da26c6cU, 0x3e23d999bd00c8e5U, 0xbd7b2dcabe2c8b53U, 0xbe2137cdbe143eadU,
  0xbe1d8eecbb65169cU, 0xbe1bbd9dbb3e3671U, 0x3e0dc75ebe17baf5U, 0x3e15b062be1f6987U,
  0xbcd4caf13d9f81a1U, 0x3e0cdc8b3da5ef4cU, 0xbe0dd566bd55df61U, 0x3d963b7dbdecc929U,
  0xbd8aca253d256212U, 0x3e2b1557bde06222U, 0x3de005b3bc21b85bU, 0xbb810fbfbcf12832U,
  0xbe27dc86bdd3df50U, 0x3ca80977bd9bfea2U, 0x3d828df0bdbf8e46U, 0x3da30102bde298e5U,
  0xb8d5b5ad3e043dabU, 0xbe1307a93d4e9eddU, 0xbd1a1643be0f3791U, 0xbdc02ac0bda1bb61U,
  0xbda7beb1be122bf5U, 0xbc3db077bdeaad91U, 0xbd440b483d6f67ceU, 0x3cf0c4eebd4de990U,
  0xbddc9eb3be1ead83U, 0x3d85dd0e3d5c8474U, 0x3d60718dbbaaab93U, 0x3ab53c613e4f9734U,
  0xbdda598a3c011072U, 0x3c8b38453db498cbU, 0x3dd75236be125ea8U, 0x3c2cfa3c3ddd1669U,
  0xbdfca9d93bd434f1U, 0xbc825022bdc6c248U, 0x3893ec0dbd954c31U, 0x3ceb04163d954c6eU,
  0xbc1da1453e0caf52U, 0x3d9e87553dc8da39U, 0xbd2799d1bcde3715U, 0xbd1a696a3e644821U,
  0x3db78577be076883U, 0xbe18b88b3d0ba078U, 0x3dbc9dd03e23f5e5U, 0xbe29a7ed3e105415U,
  0xbddc6e463e1420f9U, 0xbdbbe7d13dbaa674U, 0xbe2991463d4878b0U, 0x3e08729d3dac6852U,
  0xbe2eb7d13d220bb3U, 0xbd06a5363d9c74a6U, 0xbd8a6465bd67628aU, 0xbe25577d3da5826bU,
  0x3d546320bda484e3U, 0x3e1f7448bdf84583U, 0x3deea25ebd4c6e1dU, 0xbd827b283d6c67a9U,
  0xbdd65aa9bd0b98bdU, 0xbd2d4199bd825859U, 0x3dff3e0d3e18f24cU, 0x3e11df6ebce542deU,
  0xbe1a4b30be26e2d0U, 0xbe172cbdbb1b3b5eU, 0x3da51029bd879872U, 0x3ce8ed603ce363bbU,
  0x3df4916bbcffdd1fU, 0x3c928d753dd2e5f2U, 0x3df1595f3b8466d2U, 0xbcc5c5c83e2300dbU,
  0xbe231854bd26ac04U, 0xbc8f6e02be0dcf46U, 0x3d71ba983e041015U, 0xbd90e799bdc19cffU,
  0x3dac81103d5dbc35U, 0x3dbe486e3ddec91dU, 0xbda833ba3db248e8U, 0x3e085308bc1084f0U,
  0x3c81d0b23d1e560eU, 0x3d71e40cbd951574U, 0xbe05bcce3e2592e9U, 0xbd9c3ab73dff167cU,
  0x3cff2c2ebdcdbedcU, 0xbe22e68b3e6051d5U, 0xbe29b1503e3529acU, 0xbd3733f4bdfd04ecU,
  0x3d0936a9bddafcfdU, 0x3c135a0a3a1dd636U, 0xbbac36c1bd91c80cU, 0xbe334d8f3e3bb436U,
  0xbd90c2f9bbf4571fU, 0x3d59077a3d5a79e0U, 0xbdf06c49bde5e18dU, 0x3d95ce4dbe0377b6U,
  0x3e2da91dbc1a0e86U, 0x3cca7d5b3dc572a8U, 0xbb5ff7293da0ddc5U, 0xbdd29e083da9cb5aU,
  0xbdee389dbe2527f6U, 0x3e11b9ce3dbb5f47U, 0x3e14d6bb3d9dce7cU, 0x3de14dc03dc52134U,
  0x3e267a4ebd95aa25U, 0x3dcff837bd49957fU, 0x3d8181fcbd0c97ebU, 0xbdff4e213d50415bU,
  0x3bf9a6f8bd2d00b2U, 0x3e112d2fbe2c25e2U, 0x3d92f8aebd33f5c4U, 0x3d89a7a7bdd4df82U,
  0xbd5b99debdc12619U, 0x3db915a73ccb8bafU, 0x3d4d7faf3e02b10fU, 0xbda61f75bd261917U,
  0x3d900f8cbd08b35fU, 0xbd3bdbb5bd1214cfU, 0xbd6bce5ebb9033caU, 0x3dec5ac43db1ceddU,
  0xbb1f9edf3dcdc2f2U, 0x3d14add23d53ee26U, 0x3d73ccc23d3f2ec6U, 0xbd6c4f10be01a93bU,
  0x3cc91a853cd2009fU, 0x3c5bbdc03d62feb3U, 0x3ccc9676bd6fb0a9U, 0xbe00ec223d31ec71U,
  0xbcddbe2cbd98740eU, 0xbe1b527c3e107406U, 0xbdb70f4e3ba74737U, 0x3c7caf40bda213bbU,
  0x3d444bd43db6819bU, 0x3e50c5f0bd0f97f1U, 0x3e252447bc709d0fU, 0x3c879ef53db2e4e7U,
  0x3c219f5fbd1adc6dU, 0xbcf0d4da3d281aa9U, 0x3b57781cbd421daaU, 0x3c297fcfbd97c8c9U,
  0x3cb377013d0b60cdU, 0xbe99bb913e7c2704U, 0xbc9fec283e67c472U, 0xbc7799f7bd477785U,
  0x3dd6c3cbbdac722cU, 0x3ddc749d3d6b40b2U, 0x3df2d907bdab79d2U, 0xbad86539bde578b5U,
  0x3d48e7213d534c8dU, 0x3cc07571bd2d046dU, 0x3c80b64cbacb5cfeU, 0xbd2616cc3dbaaf4aU,
  0xbdd73c133d837617U, 0x3d6903853df7f5f2U, 0xbd21a4fdbde66531U, 0xbdbbe0c53dfd8853U,
  0xbda943e93d41a029U, 0xba085a213d33ff74U, 0xbdaf7a0a3c3d5effU, 0x3bcd79043d186a16U,
  0xbd91f9b5bdec94b0U, 0xbe022d923d062c19U, 0xbc42bb09bce7e367U, 0x3d9279c93da6b8c0U,
  0xbd43800e3e00bd7bU, 0xbd5e91cfbe031d6eU, 0x3de1ac743d628746U, 0xbe005205bd058680U,
  0x3dc100143db4926dU, 0xbda6943abddd211bU, 0x3da1f431bb391af0U, 0x3da45e69bd9d6d38U,
  0x3e0061e4bd6dc02aU, 0x3dcd2e0e3c30839fU, 0xbca4d31c3d4d5153U, 0xbe42f9393e57fd2aU,
  0xbde45d433d3c913dU, 0xbc2288bc3d77812fU, 0xbd607470bdd8844bU, 0x3d79510fbd8f7255U,
  0xbdd11244bdb7210eU, 0xbd1d842fbc422b55U, 0x3d5e3bfebe0cab3dU, 0xbe1fd74a3e0a5d42U,
  0x3de6e4de3be29cbfU, 0x3c348ff5be1ed156U, 0xbd9a13f8bd875f4eU, 0xbe0440963e48686dU,
  0xbdb6d8483cd753c1U, 0xbc8baadebc91d2a8U, 0x3c20a13a3c278631U, 0xbdb81b0f3db3f462U,
  0x3e041780bde00e4eU, 0xbd8daccabdc63b4aU, 0xbd8d37b73b367d51U, 0x3cad8ff8bdb1a44dU,
  0x3de2b3903dc54fa4U, 0xbd7ea51bbd8a005cU, 0xbce05bcebdab2b8eU, 0xbdf86942bd81a553U,
  0x3d50d23bbdc184a6U, 0x3d1c28d03dc64734U, 0xbd5d3f56bdd7496dU, 0x3d4c03283da9c690U,
  0xbdd868cebdae6b2fU, 0x3cd4c76b3dfa6835U, 0xbdc2f9773d2bd17aU, 0x3db1a8b4bdfd4084U,
  0x3caa99f83d61b8aaU, 0x3c9a00f7bdaa8318U, 0xbd84dcf4bc966c07U, 0x3ccc82c83d5aa7b2U,
  0x3d8a9d223dee0d75U, 0xbdd8155dbd171a09U, 0x3d409954bdd3a457U, 0xbd1e55393ddc8f54U,
  0xbd48a90bbdae9af5U, 0x3c344349bd911210U, 0xbd729f7b3de093cbU, 0x3d9048b33c928715U,
  0xbd926b67be00176bU, 0x3dabab54bd2ac219U, 0xbd2748083c447abdU, 0xbe312e683e5fcae3U,
  0x3bcc40a2bdb8fa40U, 0x3d60e50f3cf6cb90U, 0x3d4c4587bdc3486eU, 0xbd114558bdc6a866U,
  0xbd1eb8be3aece988U, 0x3e302b393d6608a9U, 0xbcbaaba93ca87d30U, 0x3d821a34bcad74d4U,
  0xbd3f04c1be1c3167U, 0x3c89366dbdd87e6bU, 0x3d980c18bcd5480fU, 0xbda22af43dcb44b3U,
  0xbd715c103cdd3bb5U, 0x3da7c0ccbd7dc1f4U, 0xbd2bd66d3c848da8U, 0x3d3371223cc33094U,
  0xbd0ae0a8bd120dc3U, 0x3d303007bdc2f104U, 0x3d97e6d13daa6f66U, 0xbce4bb19bd8f7e69U,
  0x3df6d5a3bd0fd030U, 0xbd84237f3ce5a8ffU, 0xbcb48ad33d1088caU, 0xbdfa84f5bd05acebU,
  0xbd4b1292bd9af679U, 0x3d1d9fdbbdb8e054U, 0x3d99e0e9bdd4625fU, 0x3d98a5033c9fa4fdU,
  0x3d2ca107bbb8c9d4U, 0x3be50d183dec759aU, 0x3d68908cbb762978U, 0x3e02fec33deca0edU,
  0x3e0d1d153df02a4eU, 0x3de590f43db4584dU, 0xbd2e27473da53f49U, 0xbe01e70d3dcd57ceU,
  0xbcd3e06bbd867162U, 0xbe09082d3d6cf5b8U, 0xbd7a7f5dbd34ae98U, 0x3db38b413e169310U,
  0xbdc8ec003d829ad4U, 0xbda98f303df555dbU, 0xbe13da05bdf64753U, 0xbde9c949bbcd9581U,
  0xbd798567bd9c8860U, 0x3ccef4f8bd69d979U, 0x3d06ff433e15b808U, 0xbda7ca933cd20700U,
  0xbce1c00ebc25d864U, 0x3dcde5333e11d507U, 0x3d25465abd8c2003U, 0x3d4e242d3c860aebU,
  0x39f5b2debddef452U, 0x3b556bb83dd60fc8U, 0xbd2176f5be234bc6U, 0xbd6848a1bde983d1U,
  0xbddb93c9bd3a79f2U, 0x3d8c06d73de6c519U, 0xbc969cb5be09847fU, 0x3b43babc3e319a39U,
  0xbd83a7abbc8c2a3dU, 0x3d1d69e0bd77b1a3U, 0x3d95d3923c82b629U, 0xbd35ff983dc9689bU,
  0xbc9b0b1a3da65de6U, 0x3e0bb96bbd9cd854U, 0x3da2ae57bdab60eaU, 0xbd22aa783e03f0d2U,
  0x3c687c1f3d15d099U, 0x3d11664abe099899U, 0x3d937a21bdd6a0e1U, 0x3d1770393caedbbbU,
  0x3d98e208bdebc16aU, 0xbd948901bd95762bU, 0xbdc627fd3d8d2940U, 0xbe0fbfdd3d7dc497U,
  0xbd157182be014562U, 0x3dbd6ae03dae297cU, 0x3d84a3283dd97aa8U, 0xbdbc6021bd19b695U,
  0x3d5ce41fbd9aeaaeU, 0x3c9111723c43a51eU, 0x3dd0ac253d7c049eU, 0xbd18c3c1bcfa7718U,
  0xbe01774b3c62f514U, 0xbd320536be025f36U, 0x3deadcc6bcaa0b60U, 0x3ce8ee483dc6251cU,
  0xbd5a58c9bddcc963U, 0xbd5ee348bddccabeU, 0x3c47ff61bd061dd0U, 0xbc2f28e53dacaf69U,
  0x3d47fab8bcaa6f36U, 0x3de3baedbd9308a9U, 0xbde9e81bbc05adcaU, 0xbdf970ba3dd6bc48U,
  0xbe0a3ed93e5cacfbU, 0x3cb491a3bd567da1U, 0x3dabcf573c238c09U, 0x3e4a3ec73d008ed5U,
  0x3db8523f3e04dd90U, 0xbde04d28bdf92a62U, 0xbd88e9e73d7cc106U, 0xbdac958f3e2ff3abU,
  0xbde45e913d056d3fU, 0x3d41996ebdb8e41bU, 0xbd8887cebe0a7dc1U, 0xbd23d0e93e6b90e1U,
  0xbe85ea573da5cd32U, 0xbd819c573decea8fU, 0xbe0d2f263e19898cU, 0xbdc0fa3d3e0fd5eeU,
  0xbe0db590bcf90213U, 0x3d1ae3f33deb5b0eU, 0xbdcee5183e0eb853U, 0x3b18f312be16b96bU,
  0x3dad8e21bdb1cd54U, 0xbd9239c7bb669b10U, 0xbde5ee51bdfab3baU, 0x3da771b63d9be8d1U,
  0x3dac4b013d55bf6bU, 0x3e05174fbd09b404U, 0xbd066793bd731cc0U, 0x3d893d84be01ae3aU,
  0xbdc5f437bd1801deU, 0xbdde185dbd3cd48cU, 0xbd828c29bd941c02U, 0xbc9252153d29b6cfU,
  0xbd9e2acc3d8c96f3U, 0xbd80d4d13d60e21aU, 0x3d62a0b43deebaf9U, 0x3e0fc054bc7adf60U,
  0xbd395736be0346f4U, 0xbd8b9b8fbdaf1ae6U, 0xbd82f2aa3d946bcdU, 0xbd9ab08cbdcaf67dU,
  0x3dab0eecbcfc3822U, 0xbe10cf35bdad3db2U, 0xbe02b37a3d63d21cU, 0xbe0eac26bd3882c7U,
  0xbd8ddc693d639427U, 0x3d655a393e11c8ceU, 0xbd0df5de3dc9d235U, 0xbe5839d7bd3a1a80U,
  0x3e0e207f3df6d95fU, 0xbdc739bf3e2b3ae3U, 0x3b9f4790be18f7f0U, 0xbddf059cbd0d04ceU,
  0x3e33a619be119127U, 0x3e03c93d3a92b931U, 0x3e01dab5bd9513a9U, 0x3b68974cbd4a9397U,
  0x3dae9e27bd8595b4U, 0xbde8cc963cdd84b0U, 0x3e446d003bc1a655U, 0x3dd0c3363cd28c79U,
  0x3d8df32c3b7ab931U, 0x3dead7d53d95b5f0U, 0x3da11a9f3d8aa282U, 0xbcfaf6e33e0075deU,
  0xbdb4f78cbda23dadU, 0x3d957898bc4033b1U, 0x3e0b6a82bd1eba5bU, 0x3cf2d282bdeac368U,
  0x3d4aedd3bd9447c9U, 0x3dd5ca3cbd15f335U, 0x3b5d0f05bdb0bf6fU, 0x3dc714113decd74dU,
  0x3dc6822bbdacdb5bU, 0xbc6603953b7b2164U, 0x3e0b4558bce287d2U, 0xbd5fe4ce3dd92148U,
  0x3cf979903dbfaceaU, 0x3db6cef73dae26c1U, 0x3cb0014d3e159d86U, 0x3e33cdc1be5bb484U,
  0x3d5cf58dbbb696cfU, 0x3e20826dbeb769ceU, 0x3ead671c3d6fb4e7U, 0xbe1a09db3df237a7U,
  0x3eb60054bd1fbbb9U, 0xbea146cbbea93830U, 0x3eb6ef0dbd8de7beU, 0xbd5073623e0c0c27U,
  0xbc81edfa3e3b125bU, 0xbe5aaebcbdd41be1U, 0x3da4be143ea42b3eU, 0xbc39130e3e83214eU,
  0xbe51aca5bd26385eU, 0xbce5f4bb3e5802f8U, 0x3de8cec43e5352b2U, 0xbd914083be26ebcaU,
  0xbcf9a7ca3da1f963U, 0x3ec32d7fbe24ec78U, 0xbeaadf3cbe881736U, 0xbe6babf63eaf149cU,
  0xbeebbfcebedddf94U, 0xbec8a525bd7d4d27U, 0xbe05d2543e6cbac9U, 0xbe8ec5983d7bbc80U,
  0xbd23d0983e84fe7bU, 0x3cdd45a03e864786U, 0x3e867361be30f0b9U, 0x3e09dc4e3eaa370eU,
  0x3ee24ba63df961cdU, 0xbe82b168beb3b5aeU, 0xbded8c48be5b642bU, 0x3e12b1ddbda94176U,
  0xbea87d69be5646ddU, 0x3eafc6fcbe443d25U, 0xbe8df11dbd3f28fcU, 0xbd8c9ab73ea00aebU,
  0xbe2baef7bcc1c255U, 0x3eb0d5353e273684U, 0x3de69e2a3d5cbec1U, 0xbe7bf60b3db6f20aU,
  0xbe6fa61bbeaef7e6U, 0x3de577623d7f047dU, 0x3e2cdc79be1f7d92U, 0x3dd2edc63df950d6U,
  0x3e9aaddfbe1d7df6U, 0x3df19a6e3d85c65dU, 0x3e82e46d3ea93c8dU, 0xbeaf6c67beb8b58aU,
  0x3d81a23d3e664875U, 0x3e553f41bde90ac3U, 0xbe825b093e7b01ecU, 0x3e601d2f3e2b5da5U,
  0xbe98e2a2bcf2bb90U, 0xbeb779f23e80c6bdU, 0xbeb241433e2e04d9U, 0x3df78a9f3dd60b38U,
  0xbe91ef6abe8cfda2U, 0xbe54ea0fbe282c30U, 0xbea92c68bddb94d1U, 0x3eaca249beb48817U,
  0x3e2c3ceebe56dc71U, 0xbe154b823de111c0U, 0xbe835d93beb5026cU, 0xbe8f673fbd9e955dU,
  0xbea7ef35bf0eab65U, 0xbd6f5fc9be072b5fU, 0x3d14cd92bdb76986U, 0xbe2dd7423e978935U,
  0xbd0bb43f3eb76488U, 0x3d37982d3e024f39U, 0x3edc01cb3da0de03U, 0x3da7506bba5a3861U,
  0x3e0bfe3fbdd2c4c5U, 0x3cfec60e3e10888eU, 0xbdb186a13c24e7a7U, 0x3eb3df97be99c6d7U,
  0x3f0a9f8c3dda575dU, 0xbe1d19e3bc4845caU, 0xbdcabb0d3bb70327U, 0x3ea2e6f23d86b5d3U,
  0x3e8a1241bdb1a299U, 0xbd2b8bc23e9bc503U, 0x3e1f2eb13e84e9bcU, 0x3dd7268c3d7a49f1U,
  0xbea72bcb3e584f14U, 0xbeb144b4bcf54510U, 0xbea113ef3e958777U, 0xbd58eeb7bea29f5bU,
  0xbe8dc61739c0aab8U, 0x3d9a77b43e93a675U, 0x3e7971cbbe5bd8e0U, 0x3ac06b513ea38b5eU,
  0x3e4a57873d10e480U, 0x3e4ec1b9bc8a3c4bU, 0xbd4631e7be17dc88U, 0x3e0803813e80b491U,
  0xbe5f43643c313a02U, 0xbb16a533be8c2573U, 0xbd5db8573e079282U, 0xbe8f3f843eb3da54U,
  0x3eb3d640be7e4999U, 0x3ea324b63e4208dbU, 0x3deff868beb23234U, 0x3d513cacbe8fbe45U,
  0xbd63f4583e333437U, 0x3d768cf8beb4227cU, 0x3d8d96e6bdc50c73U, 0x3dc1e33d3e8db968U,
  0xbe9f5c8f3e977640U, 0x3d06aec8bc4907c6U, 0x3dd8c310beaae00aU, 0x3e84c3e7be9b33c2U,
  0x3e5bbd0e3e07c1c4U, 0x3ed97a62bd87f2b6U, 0xbe8c8eb3bca1f927U, 0x3ddf785e3ea1ee02U,
  0xbeb61a33be72aed1U, 0xbc656b1a3e6d2afaU, 0xbd8f06883e332073U, 0xbe7509bf3df1f84eU,
  0x3e0c962ebc80f57eU, 0x3e8fcf42bec53d78U, 0xbeb2b4633e535c9dU, 0xbe79512cbe9cd637U,
  0xbe03657abe10d5a7U, 0xbd979870be89e561U, 0x3e56795a3e979073U, 0xbbebabde3c8eef32U,
  0x3c0321d3be492278U, 0xbe46fca73eb8dc52U, 0x3e18aaa13e6946f2U, 0xbe65d2c63e01d93aU,
  0xbe9838bbbe91fe05U, 0xbdd4553e3e2b71e8U, 0x3e237484bda63a4eU, 0x3e52175cbe466ecfU,
  0x3eb07c093e059684U, 0xbe532a863df7584dU, 0x3e1d19a4bea7f77aU, 0xbdedaf4b3e37201fU,
  0xbeab508bbe63c02cU, 0x3bb16f41bdbd3fa9U, 0x3df965803e7324a6U, 0xbd9b5dd43da4caf3U,
  0x3de925cbbe09eb0dU, 0x3df4fb4abda1e339U, 0x3e6623aebe665258U, 0xbe66c071bdc38fe0U,
  0x3e30fedf3e428b24U, 0xbd6647303ccd9c85U, 0xbe50b0963c77afeeU, 0xbe3ddfb23e642709U,
  0x3e0b79313bcc78d5U, 0x3e15ee0b3e4bdef1U, 0x3cb70bee3dbcf9acU, 0x3e0b1a9ebd31c78cU,
  0x3da2b7a53e5ee5afU, 0xbe1f72363cfe31dcU, 0xbd7a1f143dd2c6b1U, 0xbd7a17f63e8e1baaU,
  0xbe2222613e88d53eU, 0xbda879023ee956f5U, 0x3dc1f3753e04529dU, 0xbc85c5fdbec4a931U,
